{
  "version": "1.0",
  "truncation": null,
  "padding": null,
  "added_tokens": [
    {
      "id": 0,
      "content": "[PAD]",
      "single_word": false,
      "lstrip": false,
      "rstrip": false,
      "normalized": false,
      "special": true
    },
    {
      "id": 1,
      "content": "[UNK]",
      "single_word": false,
      "lstrip": false,
      "rstrip": false,
      "normalized": false,
      "special": true
    },
    {
      "id": 2,
      "content": "[START]",
      "single_word": false,
      "lstrip": false,
      "rstrip": false,
      "normalized": false,
      "special": true
    },
    {
      "id": 3,
      "content": "[END]",
      "single_word": false,
      "lstrip": false,
      "rstrip": false,
      "normalized": false,
      "special": true
    }
  ],
  "normalizer": {
    "type": "NFKC"
  },
  "pre_tokenizer": {
    "type": "Whitespace"
  },
  "post_processor": {
    "type": "TemplateProcessing",
    "single": [
      {
        "SpecialToken": {
          "id": "[START]",
          "type_id": 0
        }
      },
      {
        "Sequence": {
          "id": "A",
          "type_id": 0
        }
      },
      {
        "SpecialToken": {
          "id": "[END]",
          "type_id": 0
        }
      }
    ],
    "pair": [
      {
        "SpecialToken": {
          "id": "[START]",
          "type_id": 0
        }
      },
      {
        "Sequence": {
          "id": "A",
          "type_id": 0
        }
      },
      {
        "SpecialToken": {
          "id": "[END]",
          "type_id": 0
        }
      },
      {
        "SpecialToken": {
          "id": "[START]",
          "type_id": 0
        }
      },
      {
        "Sequence": {
          "id": "B",
          "type_id": 0
        }
      },
      {
        "SpecialToken": {
          "id": "[END]",
          "type_id": 0
        }
      }
    ],
    "special_tokens": {
      "[END]": {
        "id": "[END]",
        "ids": [
          3
        ],
        "tokens": [
          "[END]"
        ]
      },
      "[START]": {
        "id": "[START]",
        "ids": [
          2
        ],
        "tokens": [
          "[START]"
        ]
      }
    }
  },
  "decoder": null,
  "model": {
    "type": "BPE",
    "dropout": null,
    "unk_token": "[UNK]",
    "continuing_subword_prefix": null,
    "end_of_word_suffix": null,
    "fuse_unk": false,
    "byte_fallback": false,
    "ignore_merges": false,
    "vocab": {
      "[PAD]": 0,
      "[UNK]": 1,
      "[START]": 2,
      "[END]": 3,
      "!": 4,
      "%": 5,
      "'": 6,
      ",": 7,
      "-": 8,
      ".": 9,
      "0": 10,
      "1": 11,
      "2": 12,
      "3": 13,
      "4": 14,
      "5": 15,
      "6": 16,
      "7": 17,
      "8": 18,
      "9": 19,
      ";": 20,
      "?": 21,
      "A": 22,
      "B": 23,
      "C": 24,
      "D": 25,
      "L": 26,
      "N": 27,
      "O": 28,
      "P": 29,
      "S": 30,
      "X": 31,
      "_": 32,
      "a": 33,
      "c": 34,
      "g": 35,
      "j": 36,
      "k": 37,
      "n": 38,
      "o": 39,
      "s": 40,
      "~": 41,
      "ᄎ": 42,
      "ᄏ": 43,
      "ᄒ": 44,
      "ᅮ": 45,
      "ᅲ": 46,
      "가": 47,
      "각": 48,
      "간": 49,
      "갇": 50,
      "갈": 51,
      "감": 52,
      "갑": 53,
      "값": 54,
      "갔": 55,
      "강": 56,
      "갖": 57,
      "같": 58,
      "갚": 59,
      "개": 60,
      "객": 61,
      "갠": 62,
      "갯": 63,
      "갱": 64,
      "걍": 65,
      "걔": 66,
      "거": 67,
      "걱": 68,
      "건": 69,
      "걷": 70,
      "걸": 71,
      "검": 72,
      "겁": 73,
      "것": 74,
      "겉": 75,
      "게": 76,
      "겐": 77,
      "겜": 78,
      "겟": 79,
      "겠": 80,
      "겨": 81,
      "격": 82,
      "겪": 83,
      "견": 84,
      "결": 85,
      "겹": 86,
      "겼": 87,
      "경": 88,
      "곁": 89,
      "계": 90,
      "곗": 91,
      "고": 92,
      "곡": 93,
      "곤": 94,
      "곧": 95,
      "골": 96,
      "곰": 97,
      "곱": 98,
      "곳": 99,
      "공": 100,
      "과": 101,
      "관": 102,
      "광": 103,
      "괘": 104,
      "괜": 105,
      "괴": 106,
      "교": 107,
      "구": 108,
      "국": 109,
      "군": 110,
      "굳": 111,
      "굴": 112,
      "굶": 113,
      "굽": 114,
      "굿": 115,
      "궁": 116,
      "궈": 117,
      "권": 118,
      "궜": 119,
      "귀": 120,
      "귄": 121,
      "귈": 122,
      "귐": 123,
      "규": 124,
      "균": 125,
      "귤": 126,
      "그": 127,
      "극": 128,
      "근": 129,
      "글": 130,
      "긁": 131,
      "금": 132,
      "급": 133,
      "긋": 134,
      "긍": 135,
      "기": 136,
      "긴": 137,
      "길": 138,
      "김": 139,
      "깃": 140,
      "깅": 141,
      "깊": 142,
      "까": 143,
      "깍": 144,
      "깎": 145,
      "깐": 146,
      "깔": 147,
      "깜": 148,
      "깝": 149,
      "깠": 150,
      "깡": 151,
      "깨": 152,
      "깬": 153,
      "깰": 154,
      "깼": 155,
      "꺼": 156,
      "꺽": 157,
      "껀": 158,
      "껄": 159,
      "껏": 160,
      "께": 161,
      "껴": 162,
      "꼈": 163,
      "꼬": 164,
      "꼭": 165,
      "꼰": 166,
      "꼴": 167,
      "꼼": 168,
      "꼿": 169,
      "꽁": 170,
      "꽂": 171,
      "꽃": 172,
      "꽈": 173,
      "꽉": 174,
      "꽝": 175,
      "꽤": 176,
      "꾸": 177,
      "꾹": 178,
      "꾼": 179,
      "꿀": 180,
      "꿈": 181,
      "꿎": 182,
      "꿔": 183,
      "꿧": 184,
      "꿨": 185,
      "꿩": 186,
      "꿰": 187,
      "뀌": 188,
      "뀐": 189,
      "뀔": 190,
      "끄": 191,
      "끈": 192,
      "끊": 193,
      "끌": 194,
      "끓": 195,
      "끔": 196,
      "끗": 197,
      "끝": 198,
      "끼": 199,
      "낀": 200,
      "낄": 201,
      "낌": 202,
      "나": 203,
      "낙": 204,
      "낚": 205,
      "난": 206,
      "날": 207,
      "남": 208,
      "납": 209,
      "낫": 210,
      "났": 211,
      "낭": 212,
      "낮": 213,
      "낳": 214,
      "내": 215,
      "낸": 216,
      "낼": 217,
      "냄": 218,
      "냅": 219,
      "냈": 220,
      "냉": 221,
      "냐": 222,
      "냥": 223,
      "너": 224,
      "넋": 225,
      "넌": 226,
      "널": 227,
      "넓": 228,
      "넘": 229,
      "넛": 230,
      "넣": 231,
      "네": 232,
      "넥": 233,
      "넷": 234,
      "넹": 235,
      "녀": 236,
      "녁": 237,
      "년": 238,
      "념": 239,
      "녔": 240,
      "녕": 241,
      "노": 242,
      "녹": 243,
      "논": 244,
      "놀": 245,
      "놈": 246,
      "놉": 247,
      "농": 248,
      "높": 249,
      "놓": 250,
      "놔": 251,
      "놨": 252,
      "뇌": 253,
      "뇨": 254,
      "뇽": 255,
      "누": 256,
      "눅": 257,
      "눈": 258,
      "눌": 259,
      "눕": 260,
      "눠": 261,
      "눴": 262,
      "뉴": 263,
      "느": 264,
      "는": 265,
      "늘": 266,
      "늙": 267,
      "늠": 268,
      "능": 269,
      "늦": 270,
      "늪": 271,
      "니": 272,
      "닉": 273,
      "닌": 274,
      "닐": 275,
      "님": 276,
      "닙": 277,
      "닝": 278,
      "다": 279,
      "닥": 280,
      "닦": 281,
      "단": 282,
      "닫": 283,
      "달": 284,
      "닭": 285,
      "닮": 286,
      "닳": 287,
      "담": 288,
      "답": 289,
      "닷": 290,
      "당": 291,
      "닿": 292,
      "대": 293,
      "댄": 294,
      "댈": 295,
      "댓": 296,
      "댔": 297,
      "댜": 298,
      "더": 299,
      "덕": 300,
      "던": 301,
      "덜": 302,
      "덤": 303,
      "덥": 304,
      "덧": 305,
      "덩": 306,
      "덮": 307,
      "데": 308,
      "덴": 309,
      "델": 310,
      "뎌": 311,
      "뎠": 312,
      "도": 313,
      "독": 314,
      "돈": 315,
      "돋": 316,
      "돌": 317,
      "돕": 318,
      "동": 319,
      "돼": 320,
      "됐": 321,
      "되": 322,
      "된": 323,
      "될": 324,
      "됨": 325,
      "됩": 326,
      "됬": 327,
      "두": 328,
      "둑": 329,
      "둔": 330,
      "둘": 331,
      "둠": 332,
      "둥": 333,
      "둬": 334,
      "뒀": 335,
      "뒤": 336,
      "뒷": 337,
      "뒹": 338,
      "듀": 339,
      "드": 340,
      "득": 341,
      "든": 342,
      "듣": 343,
      "들": 344,
      "듦": 345,
      "듬": 346,
      "듭": 347,
      "듯": 348,
      "등": 349,
      "디": 350,
      "딘": 351,
      "딛": 352,
      "딜": 353,
      "딧": 354,
      "딨": 355,
      "딩": 356,
      "딪": 357,
      "따": 358,
      "딱": 359,
      "딴": 360,
      "딸": 361,
      "땀": 362,
      "땅": 363,
      "때": 364,
      "땐": 365,
      "땜": 366,
      "땠": 367,
      "땡": 368,
      "떄": 369,
      "떠": 370,
      "떡": 371,
      "떤": 372,
      "떨": 373,
      "떴": 374,
      "떻": 375,
      "떼": 376,
      "뗄": 377,
      "또": 378,
      "똑": 379,
      "똥": 380,
      "뚝": 381,
      "뚫": 382,
      "뚱": 383,
      "뛰": 384,
      "뛴": 385,
      "뜁": 386,
      "뜨": 387,
      "뜩": 388,
      "뜬": 389,
      "뜰": 390,
      "뜸": 391,
      "뜻": 392,
      "띄": 393,
      "띠": 394,
      "띰": 395,
      "띵": 396,
      "라": 397,
      "락": 398,
      "란": 399,
      "랄": 400,
      "람": 401,
      "랍": 402,
      "랐": 403,
      "랑": 404,
      "랖": 405,
      "래": 406,
      "랙": 407,
      "랜": 408,
      "랠": 409,
      "램": 410,
      "랩": 411,
      "랫": 412,
      "랬": 413,
      "랭": 414,
      "량": 415,
      "러": 416,
      "런": 417,
      "럴": 418,
      "럼": 419,
      "럽": 420,
      "럿": 421,
      "렀": 422,
      "렁": 423,
      "렇": 424,
      "레": 425,
      "렉": 426,
      "렌": 427,
      "렐": 428,
      "렘": 429,
      "렛": 430,
      "렜": 431,
      "려": 432,
      "력": 433,
      "련": 434,
      "렬": 435,
      "렴": 436,
      "렵": 437,
      "렷": 438,
      "렸": 439,
      "령": 440,
      "례": 441,
      "로": 442,
      "록": 443,
      "론": 444,
      "롤": 445,
      "롭": 446,
      "롯": 447,
      "롱": 448,
      "뢰": 449,
      "료": 450,
      "루": 451,
      "룩": 452,
      "룰": 453,
      "룸": 454,
      "룽": 455,
      "뤄": 456,
      "류": 457,
      "륜": 458,
      "률": 459,
      "르": 460,
      "륵": 461,
      "른": 462,
      "를": 463,
      "름": 464,
      "릅": 465,
      "릇": 466,
      "릎": 467,
      "리": 468,
      "릭": 469,
      "린": 470,
      "릴": 471,
      "림": 472,
      "립": 473,
      "릿": 474,
      "링": 475,
      "마": 476,
      "막": 477,
      "만": 478,
      "많": 479,
      "말": 480,
      "맘": 481,
      "맙": 482,
      "맛": 483,
      "망": 484,
      "맞": 485,
      "맡": 486,
      "매": 487,
      "맥": 488,
      "맨": 489,
      "맴": 490,
      "맷": 491,
      "맹": 492,
      "맺": 493,
      "머": 494,
      "먹": 495,
      "먼": 496,
      "멀": 497,
      "멈": 498,
      "멋": 499,
      "멍": 500,
      "메": 501,
      "멘": 502,
      "멤": 503,
      "며": 504,
      "면": 505,
      "명": 506,
      "몇": 507,
      "모": 508,
      "목": 509,
      "몫": 510,
      "몬": 511,
      "몰": 512,
      "몸": 513,
      "몹": 514,
      "못": 515,
      "몽": 516,
      "묘": 517,
      "무": 518,
      "묵": 519,
      "문": 520,
      "묻": 521,
      "물": 522,
      "뭇": 523,
      "뭉": 524,
      "뭐": 525,
      "뭔": 526,
      "뭘": 527,
      "뭣": 528,
      "뮤": 529,
      "미": 530,
      "민": 531,
      "믿": 532,
      "밀": 533,
      "밉": 534,
      "밌": 535,
      "밍": 536,
      "밑": 537,
      "바": 538,
      "박": 539,
      "밖": 540,
      "반": 541,
      "받": 542,
      "발": 543,
      "밝": 544,
      "밟": 545,
      "밤": 546,
      "밥": 547,
      "방": 548,
      "밭": 549,
      "배": 550,
      "백": 551,
      "밸": 552,
      "뱃": 553,
      "뱄": 554,
      "뱉": 555,
      "버": 556,
      "벅": 557,
      "번": 558,
      "벋": 559,
      "벌": 560,
      "범": 561,
      "법": 562,
      "벗": 563,
      "벚": 564,
      "베": 565,
      "벤": 566,
      "벨": 567,
      "벴": 568,
      "벼": 569,
      "벽": 570,
      "변": 571,
      "별": 572,
      "볍": 573,
      "병": 574,
      "볕": 575,
      "보": 576,
      "복": 577,
      "볶": 578,
      "본": 579,
      "볼": 580,
      "봄": 581,
      "봅": 582,
      "봇": 583,
      "봉": 584,
      "봐": 585,
      "봤": 586,
      "뵈": 587,
      "부": 588,
      "북": 589,
      "분": 590,
      "불": 591,
      "붓": 592,
      "붕": 593,
      "붙": 594,
      "뷔": 595,
      "브": 596,
      "블": 597,
      "비": 598,
      "빈": 599,
      "빌": 600,
      "빔": 601,
      "빗": 602,
      "빙": 603,
      "빚": 604,
      "빛": 605,
      "빠": 606,
      "빡": 607,
      "빨": 608,
      "빴": 609,
      "빵": 610,
      "빼": 611,
      "빽": 612,
      "뺄": 613,
      "뺏": 614,
      "뺴": 615,
      "뻐": 616,
      "뻑": 617,
      "뻔": 618,
      "뻘": 619,
      "뻣": 620,
      "뻤": 621,
      "뻥": 622,
      "뽀": 623,
      "뽑": 624,
      "뽕": 625,
      "뿅": 626,
      "뿌": 627,
      "뿍": 628,
      "뿐": 629,
      "쁘": 630,
      "쁜": 631,
      "쁠": 632,
      "쁨": 633,
      "삐": 634,
      "삔": 635,
      "사": 636,
      "삭": 637,
      "산": 638,
      "살": 639,
      "삶": 640,
      "삼": 641,
      "삽": 642,
      "삿": 643,
      "샀": 644,
      "상": 645,
      "새": 646,
      "색": 647,
      "샌": 648,
      "샐": 649,
      "샘": 650,
      "샜": 651,
      "생": 652,
      "샤": 653,
      "서": 654,
      "석": 655,
      "섞": 656,
      "선": 657,
      "섣": 658,
      "설": 659,
      "섬": 660,
      "섭": 661,
      "섯": 662,
      "섰": 663,
      "성": 664,
      "세": 665,
      "섹": 666,
      "센": 667,
      "셀": 668,
      "셔": 669,
      "션": 670,
      "셥": 671,
      "셨": 672,
      "소": 673,
      "속": 674,
      "손": 675,
      "솔": 676,
      "솜": 677,
      "송": 678,
      "쇠": 679,
      "쇼": 680,
      "숍": 681,
      "숏": 682,
      "수": 683,
      "숙": 684,
      "순": 685,
      "술": 686,
      "숨": 687,
      "숫": 688,
      "숭": 689,
      "쉬": 690,
      "쉴": 691,
      "쉼": 692,
      "쉽": 693,
      "슈": 694,
      "스": 695,
      "슨": 696,
      "슬": 697,
      "슴": 698,
      "습": 699,
      "슷": 700,
      "승": 701,
      "시": 702,
      "식": 703,
      "신": 704,
      "실": 705,
      "싫": 706,
      "심": 707,
      "십": 708,
      "싱": 709,
      "싶": 710,
      "싸": 711,
      "싹": 712,
      "싼": 713,
      "쌀": 714,
      "쌈": 715,
      "쌍": 716,
      "쌓": 717,
      "쌤": 718,
      "쌩": 719,
      "써": 720,
      "썩": 721,
      "썰": 722,
      "썸": 723,
      "썹": 724,
      "썼": 725,
      "쎄": 726,
      "쎈": 727,
      "쎌": 728,
      "쏘": 729,
      "쏜": 730,
      "쏟": 731,
      "쏠": 732,
      "쐬": 733,
      "쑤": 734,
      "쑥": 735,
      "쓰": 736,
      "쓴": 737,
      "쓸": 738,
      "씀": 739,
      "씁": 740,
      "씌": 741,
      "씨": 742,
      "씩": 743,
      "씬": 744,
      "씰": 745,
      "씸": 746,
      "씹": 747,
      "씻": 748,
      "씽": 749,
      "아": 750,
      "악": 751,
      "안": 752,
      "앉": 753,
      "않": 754,
      "알": 755,
      "압": 756,
      "앗": 757,
      "았": 758,
      "앙": 759,
      "앞": 760,
      "애": 761,
      "액": 762,
      "앨": 763,
      "앱": 764,
      "야": 765,
      "약": 766,
      "얄": 767,
      "얇": 768,
      "양": 769,
      "얘": 770,
      "어": 771,
      "억": 772,
      "언": 773,
      "얻": 774,
      "얼": 775,
      "얽": 776,
      "엄": 777,
      "업": 778,
      "없": 779,
      "엇": 780,
      "었": 781,
      "엉": 782,
      "엊": 783,
      "에": 784,
      "엔": 785,
      "엘": 786,
      "엠": 787,
      "엣": 788,
      "여": 789,
      "역": 790,
      "엮": 791,
      "연": 792,
      "열": 793,
      "염": 794,
      "엽": 795,
      "엿": 796,
      "였": 797,
      "영": 798,
      "옆": 799,
      "옇": 800,
      "예": 801,
      "옛": 802,
      "오": 803,
      "옥": 804,
      "온": 805,
      "올": 806,
      "옮": 807,
      "옳": 808,
      "옴": 809,
      "옵": 810,
      "옷": 811,
      "와": 812,
      "완": 813,
      "왓": 814,
      "왔": 815,
      "왕": 816,
      "왜": 817,
      "왠": 818,
      "왤": 819,
      "외": 820,
      "왼": 821,
      "욌": 822,
      "요": 823,
      "욕": 824,
      "욜": 825,
      "용": 826,
      "우": 827,
      "욱": 828,
      "운": 829,
      "울": 830,
      "움": 831,
      "웁": 832,
      "웃": 833,
      "워": 834,
      "원": 835,
      "월": 836,
      "웠": 837,
      "웨": 838,
      "웬": 839,
      "웹": 840,
      "웽": 841,
      "위": 842,
      "윗": 843,
      "윙": 844,
      "유": 845,
      "육": 846,
      "윤": 847,
      "율": 848,
      "으": 849,
      "은": 850,
      "을": 851,
      "음": 852,
      "응": 853,
      "의": 854,
      "이": 855,
      "익": 856,
      "인": 857,
      "일": 858,
      "읽": 859,
      "잃": 860,
      "임": 861,
      "입": 862,
      "잇": 863,
      "있": 864,
      "잊": 865,
      "잌": 866,
      "자": 867,
      "작": 868,
      "잔": 869,
      "잖": 870,
      "잘": 871,
      "잠": 872,
      "잡": 873,
      "잤": 874,
      "장": 875,
      "잦": 876,
      "재": 877,
      "잼": 878,
      "잿": 879,
      "쟁": 880,
      "저": 881,
      "적": 882,
      "전": 883,
      "절": 884,
      "젊": 885,
      "점": 886,
      "접": 887,
      "젔": 888,
      "정": 889,
      "젖": 890,
      "제": 891,
      "젝": 892,
      "젠": 893,
      "젤": 894,
      "젯": 895,
      "져": 896,
      "젹": 897,
      "졋": 898,
      "졌": 899,
      "조": 900,
      "족": 901,
      "존": 902,
      "졸": 903,
      "좀": 904,
      "좁": 905,
      "종": 906,
      "좋": 907,
      "좌": 908,
      "죄": 909,
      "죠": 910,
      "주": 911,
      "죽": 912,
      "준": 913,
      "줄": 914,
      "줌": 915,
      "줍": 916,
      "중": 917,
      "줘": 918,
      "줬": 919,
      "쥐": 920,
      "쥬": 921,
      "즈": 922,
      "즉": 923,
      "즐": 924,
      "즘": 925,
      "즙": 926,
      "증": 927,
      "지": 928,
      "직": 929,
      "진": 930,
      "질": 931,
      "짐": 932,
      "집": 933,
      "짓": 934,
      "징": 935,
      "짚": 936,
      "짜": 937,
      "짝": 938,
      "짠": 939,
      "짤": 940,
      "짧": 941,
      "짬": 942,
      "짰": 943,
      "짱": 944,
      "째": 945,
      "짼": 946,
      "쨌": 947,
      "쩌": 948,
      "쩍": 949,
      "쩐": 950,
      "쩔": 951,
      "쩝": 952,
      "쩡": 953,
      "쪄": 954,
      "쪘": 955,
      "쪼": 956,
      "쪽": 957,
      "쫄": 958,
      "쫌": 959,
      "쫙": 960,
      "쭈": 961,
      "쭉": 962,
      "쭤": 963,
      "쯤": 964,
      "찌": 965,
      "찍": 966,
      "찐": 967,
      "찔": 968,
      "찜": 969,
      "찝": 970,
      "찡": 971,
      "찢": 972,
      "차": 973,
      "착": 974,
      "찬": 975,
      "찮": 976,
      "찰": 977,
      "참": 978,
      "찹": 979,
      "찼": 980,
      "창": 981,
      "찾": 982,
      "채": 983,
      "책": 984,
      "챔": 985,
      "챗": 986,
      "챘": 987,
      "챙": 988,
      "처": 989,
      "척": 990,
      "천": 991,
      "철": 992,
      "첨": 993,
      "첩": 994,
      "첫": 995,
      "청": 996,
      "체": 997,
      "쳇": 998,
      "쳐": 999,
      "쳤": 1000,
      "초": 1001,
      "촉": 1002,
      "촌": 1003,
      "총": 1004,
      "촬": 1005,
      "최": 1006,
      "추": 1007,
      "축": 1008,
      "춘": 1009,
      "출": 1010,
      "춤": 1011,
      "춥": 1012,
      "충": 1013,
      "춰": 1014,
      "췄": 1015,
      "취": 1016,
      "츄": 1017,
      "츠": 1018,
      "측": 1019,
      "츤": 1020,
      "층": 1021,
      "치": 1022,
      "칙": 1023,
      "친": 1024,
      "칠": 1025,
      "침": 1026,
      "칩": 1027,
      "칫": 1028,
      "칭": 1029,
      "카": 1030,
      "칼": 1031,
      "캄": 1032,
      "캐": 1033,
      "캔": 1034,
      "캬": 1035,
      "커": 1036,
      "컥": 1037,
      "컨": 1038,
      "컴": 1039,
      "컷": 1040,
      "컸": 1041,
      "컹": 1042,
      "케": 1043,
      "켓": 1044,
      "켜": 1045,
      "켠": 1046,
      "켰": 1047,
      "코": 1048,
      "콕": 1049,
      "콘": 1050,
      "콜": 1051,
      "콤": 1052,
      "콧": 1053,
      "콩": 1054,
      "쾌": 1055,
      "쿠": 1056,
      "쿨": 1057,
      "쿵": 1058,
      "쿼": 1059,
      "퀴": 1060,
      "큐": 1061,
      "크": 1062,
      "큰": 1063,
      "클": 1064,
      "큼": 1065,
      "킁": 1066,
      "키": 1067,
      "킥": 1068,
      "킨": 1069,
      "킬": 1070,
      "킴": 1071,
      "킹": 1072,
      "타": 1073,
      "탁": 1074,
      "탄": 1075,
      "탈": 1076,
      "탐": 1077,
      "탑": 1078,
      "탓": 1079,
      "탔": 1080,
      "탕": 1081,
      "태": 1082,
      "택": 1083,
      "탱": 1084,
      "터": 1085,
      "턱": 1086,
      "턴": 1087,
      "털": 1088,
      "텀": 1089,
      "텁": 1090,
      "텄": 1091,
      "텅": 1092,
      "테": 1093,
      "텍": 1094,
      "텐": 1095,
      "텔": 1096,
      "템": 1097,
      "텨": 1098,
      "텻": 1099,
      "텼": 1100,
      "토": 1101,
      "톡": 1102,
      "톤": 1103,
      "톱": 1104,
      "통": 1105,
      "퇴": 1106,
      "투": 1107,
      "툭": 1108,
      "툰": 1109,
      "툴": 1110,
      "툼": 1111,
      "퉁": 1112,
      "퉜": 1113,
      "튀": 1114,
      "튜": 1115,
      "트": 1116,
      "특": 1117,
      "틀": 1118,
      "틈": 1119,
      "틋": 1120,
      "티": 1121,
      "틱": 1122,
      "팀": 1123,
      "팁": 1124,
      "팅": 1125,
      "파": 1126,
      "팍": 1127,
      "판": 1128,
      "팔": 1129,
      "팠": 1130,
      "패": 1131,
      "팩": 1132,
      "팬": 1133,
      "팸": 1134,
      "퍼": 1135,
      "펑": 1136,
      "페": 1137,
      "펜": 1138,
      "펨": 1139,
      "펭": 1140,
      "펴": 1141,
      "편": 1142,
      "펼": 1143,
      "평": 1144,
      "폐": 1145,
      "포": 1146,
      "폭": 1147,
      "폰": 1148,
      "폼": 1149,
      "퐈": 1150,
      "표": 1151,
      "푸": 1152,
      "푹": 1153,
      "푼": 1154,
      "풀": 1155,
      "품": 1156,
      "풋": 1157,
      "풍": 1158,
      "퓨": 1159,
      "프": 1160,
      "픈": 1161,
      "플": 1162,
      "픔": 1163,
      "픕": 1164,
      "피": 1165,
      "픽": 1166,
      "핀": 1167,
      "필": 1168,
      "핍": 1169,
      "핏": 1170,
      "핑": 1171,
      "하": 1172,
      "학": 1173,
      "한": 1174,
      "할": 1175,
      "함": 1176,
      "합": 1177,
      "핫": 1178,
      "항": 1179,
      "해": 1180,
      "핸": 1181,
      "햇": 1182,
      "했": 1183,
      "행": 1184,
      "햐": 1185,
      "향": 1186,
      "허": 1187,
      "헉": 1188,
      "헌": 1189,
      "헐": 1190,
      "험": 1191,
      "헛": 1192,
      "헤": 1193,
      "헥": 1194,
      "헬": 1195,
      "헷": 1196,
      "헹": 1197,
      "혀": 1198,
      "현": 1199,
      "혈": 1200,
      "혐": 1201,
      "협": 1202,
      "혔": 1203,
      "형": 1204,
      "혜": 1205,
      "호": 1206,
      "혹": 1207,
      "혼": 1208,
      "홀": 1209,
      "홈": 1210,
      "화": 1211,
      "확": 1212,
      "환": 1213,
      "활": 1214,
      "홧": 1215,
      "황": 1216,
      "회": 1217,
      "획": 1218,
      "효": 1219,
      "후": 1220,
      "훅": 1221,
      "훈": 1222,
      "훌": 1223,
      "훔": 1224,
      "훨": 1225,
      "휘": 1226,
      "휙": 1227,
      "휨": 1228,
      "휴": 1229,
      "흐": 1230,
      "흑": 1231,
      "흔": 1232,
      "흘": 1233,
      "흠": 1234,
      "흡": 1235,
      "흥": 1236,
      "희": 1237,
      "흰": 1238,
      "히": 1239,
      "힌": 1240,
      "힐": 1241,
      "힘": 1242,
      "힙": 1243,
      "세요": 1244,
      "하는": 1245,
      "보세요": 1246,
      "사람": 1247,
      "예요": 1248,
      "거예요": 1249,
      "좋아": 1250,
      "어요": 1251,
      "사랑": 1252,
      "네요": 1253,
      "니다": 1254,
      "생각": 1255,
      "친구": 1256,
      "해보세요": 1257,
      "봐요": 1258,
      "는데": 1259,
      "하고": 1260,
      "마음": 1261,
      "같아": 1262,
      "너무": 1263,
      "좋아하는": 1264,
      "이별": 1265,
      "연락": 1266,
      "하지": 1267,
      "헤어": 1268,
      "있을": 1269,
      "여자": 1270,
      "남자": 1271,
      "으면": 1272,
      "힘들": 1273,
      "시간": 1274,
      "해요": 1275,
      "좋은": 1276,
      "나봐요": 1277,
      "많이": 1278,
      "사람이": 1279,
      "하면": 1280,
      "하세요": 1281,
      "에요": 1282,
      "싶어": 1283,
      "으로": 1284,
      "한테": 1285,
      "에서": 1286,
      "같아요": 1287,
      "있어요": 1288,
      "까요": 1289,
      "주세요": 1290,
      "겠어요": 1291,
      "아요": 1292,
      "친구가": 1293,
      "있는": 1294,
      "만나": 1295,
      "오늘": 1296,
      "마세요": 1297,
      "하게": 1298,
      "해야": 1299,
      "이에요": 1300,
      "겠네요": 1301,
      "자신": 1302,
      "해도": 1303,
      "이제": 1304,
      "에게": 1305,
      "겠지": 1306,
      "좋을": 1307,
      "습니다": 1308,
      "괜찮": 1309,
      "아니": 1310,
      "연애": 1311,
      "이야": 1312,
      "라고": 1313,
      "할까": 1314,
      "마음이": 1315,
      "싶다": 1316,
      "게요": 1317,
      "내가": 1318,
      "필요": 1319,
      "는게": 1320,
      "모르": 1321,
      "다른": 1322,
      "가봐요": 1323,
      "어떻": 1324,
      "다면": 1325,
      "시간이": 1326,
      "없어": 1327,
      "어떻게": 1328,
      "들어": 1329,
      "것도": 1330,
      "짝남": 1331,
      "헤어진": 1332,
      "있어": 1333,
      "보고": 1334,
      "혼자": 1335,
      "당신": 1336,
      "겠어": 1337,
      "겠죠": 1338,
      "다고": 1339,
      "다시": 1340,
      "일이": 1341,
      "수도": 1342,
      "들이": 1343,
      "정리": 1344,
      "인데": 1345,
      "정말": 1346,
      "지금": 1347,
      "결혼": 1348,
      "하나": 1349,
      "기다": 1350,
      "같이": 1351,
      "같은": 1352,
      "그런": 1353,
      "중요": 1354,
      "제가": 1355,
      "행복": 1356,
      "조금": 1357,
      "다가": 1358,
      "준비": 1359,
      "렇게": 1360,
      "보다": 1361,
      "고민": 1362,
      "아직": 1363,
      "해서": 1364,
      "사랑이": 1365,
      "라요": 1366,
      "보는": 1367,
      "선물": 1368,
      "없는": 1369,
      "지도": 1370,
      "해주세요": 1371,
      "없어요": 1372,
      "자꾸": 1373,
      "찾아": 1374,
      "힘든": 1375,
      "돼요": 1376,
      "방법": 1377,
      "아무": 1378,
      "합니다": 1379,
      "물어": 1380,
      "저도": 1381,
      "고백": 1382,
      "까지": 1383,
      "볼까": 1384,
      "이라": 1385,
      "지만": 1386,
      "이야기": 1387,
      "짝녀": 1388,
      "했어": 1389,
      "그럴": 1390,
      "니까요": 1391,
      "바랄": 1392,
      "싶은": 1393,
      "이네요": 1394,
      "짝사랑": 1395,
      "가는": 1396,
      "대로": 1397,
      "진짜": 1398,
      "하기": 1399,
      "겠다": 1400,
      "서로": 1401,
      "후회": 1402,
      "먼저": 1403,
      "받아": 1404,
      "바랄게요": 1405,
      "사귀": 1406,
      "봅니다": 1407,
      "될까": 1408,
      "먹고": 1409,
      "시작": 1410,
      "헤어지": 1411,
      "있을까": 1412,
      "이죠": 1413,
      "드세요": 1414,
      "을까": 1415,
      "헤어진지": 1416,
      "하죠": 1417,
      "인가": 1418,
      "그녀": 1419,
      "야지": 1420,
      "에는": 1421,
      "계속": 1422,
      "아닌": 1423,
      "자고": 1424,
      "좋아요": 1425,
      "가능": 1426,
      "감정": 1427,
      "나를": 1428,
      "만큼": 1429,
      "많은": 1430,
      "여행": 1431,
      "하는게": 1432,
      "공부": 1433,
      "하루": 1434,
      "마음을": 1435,
      "여자친구가": 1436,
      "이트": 1437,
      "지는": 1438,
      "거라": 1439,
      "기분": 1440,
      "여자친구": 1441,
      "힘드": 1442,
      "하는데": 1443,
      "려고": 1444,
      "여친": 1445,
      "이상": 1446,
      "남자친구가": 1447,
      "랍니다": 1448,
      "가고": 1449,
      "신경": 1450,
      "않아요": 1451,
      "기가": 1452,
      "좋죠": 1453,
      "다는": 1454,
      "리는": 1455,
      "했는데": 1456,
      "니까": 1457,
      "걱정": 1458,
      "싫어": 1459,
      "그래": 1460,
      "나는": 1461,
      "바랍니다": 1462,
      "알아": 1463,
      "관심": 1464,
      "입니다": 1465,
      "해주": 1466,
      "데이트": 1467,
      "상대": 1468,
      "면서": 1469,
      "남자친구": 1470,
      "힘들어": 1471,
      "기억": 1472,
      "나요": 1473,
      "남친": 1474,
      "머리": 1475,
      "되는": 1476,
      "하네": 1477,
      "화를": 1478,
      "말해보세요": 1479,
      "상처": 1480,
      "적인": 1481,
      "생각해요": 1482,
      "사람은": 1483,
      "로운": 1484,
      "무슨": 1485,
      "스러": 1486,
      "이랑": 1487,
      "있었": 1488,
      "자기": 1489,
      "타는": 1490,
      "했던": 1491,
      "어떨": 1492,
      "이렇게": 1493,
      "인지": 1494,
      "좋겠어요": 1495,
      "충분": 1496,
      "걸까": 1497,
      "어떤": 1498,
      "언제": 1499,
      "표현": 1500,
      "말고": 1501,
      "오래": 1502,
      "있으면": 1503,
      "카톡": 1504,
      "하다": 1505,
      "그냥": 1506,
      "텐데": 1507,
      "함께": 1508,
      "부터": 1509,
      "않는": 1510,
      "헤어졌": 1511,
      "나만": 1512,
      "돌아": 1513,
      "않을": 1514,
      "어보세요": 1515,
      "이었": 1516,
      "힘드네": 1517,
      "누구": 1518,
      "몰라요": 1519,
      "사랑은": 1520,
      "왔어": 1521,
      "이해": 1522,
      "라도": 1523,
      "보내": 1524,
      "생겼": 1525,
      "있는데": 1526,
      "사람을": 1527,
      "사랑하는": 1528,
      "자신을": 1529,
      "겠지만": 1530,
      "결정": 1531,
      "스트": 1532,
      "이유": 1533,
      "궁금": 1534,
      "따라": 1535,
      "리고": 1536,
      "많아": 1537,
      "보면": 1538,
      "썸남": 1539,
      "운동": 1540,
      "내일": 1541,
      "새로운": 1542,
      "어디": 1543,
      "가요": 1544,
      "가지": 1545,
      "선택": 1546,
      "아프": 1547,
      "애가": 1548,
      "한달": 1549,
      "어떨까요": 1550,
      "부담": 1551,
      "생각해보세요": 1552,
      "스트레": 1553,
      "미련": 1554,
      "안돼": 1555,
      "노력": 1556,
      "지나": 1557,
      "해볼까": 1558,
      "기도": 1559,
      "나한테": 1560,
      "었어": 1561,
      "처럼": 1562,
      "회사": 1563,
      "때문": 1564,
      "전화": 1565,
      "생각이": 1566,
      "개월": 1567,
      "직접": 1568,
      "아니에요": 1569,
      "가보세요": 1570,
      "거나": 1571,
      "않아": 1572,
      "어도": 1573,
      "오세요": 1574,
      "조심": 1575,
      "그러": 1576,
      "았는데": 1577,
      "인연": 1578,
      "좋겠네요": 1579,
      "하네요": 1580,
      "연락이": 1581,
      "같은데": 1582,
      "노래": 1583,
      "않았": 1584,
      "어떡": 1585,
      "없이": 1586,
      "생각을": 1587,
      "만날": 1588,
      "아파": 1589,
      "움이": 1590,
      "이젠": 1591,
      "재미": 1592,
      "군요": 1593,
      "그게": 1594,
      "소개": 1595,
      "쉽지": 1596,
      "어려": 1597,
      "으세요": 1598,
      "인생": 1599,
      "잘못": 1600,
      "항상": 1601,
      "이별을": 1602,
      "괜찮아": 1603,
      "신경쓰": 1604,
      "스트레스": 1605,
      "가세요": 1606,
      "그렇게": 1607,
      "동안": 1608,
      "저는": 1609,
      "해지": 1610,
      "마음에": 1611,
      "짝남이": 1612,
      "그만": 1613,
      "달라": 1614,
      "이나": 1615,
      "적으로": 1616,
      "좋겠다": 1617,
      "모르겠어": 1618,
      "싶은데": 1619,
      "느낌": 1620,
      "말을": 1621,
      "바라요": 1622,
      "인가봐요": 1623,
      "처음": 1624,
      "기를": 1625,
      "때가": 1626,
      "상황": 1627,
      "어때": 1628,
      "해줘": 1629,
      "사랑을": 1630,
      "나봅니다": 1631,
      "려보세요": 1632,
      "리세요": 1633,
      "사이": 1634,
      "우리": 1635,
      "위로": 1636,
      "있죠": 1637,
      "축하": 1638,
      "나이": 1639,
      "만났": 1640,
      "만들": 1641,
      "졌어": 1642,
      "해봐요": 1643,
      "중요한": 1644,
      "찾아보세요": 1645,
      "답답": 1646,
      "되었": 1647,
      "만에": 1648,
      "맞는": 1649,
      "스럽": 1650,
      "습관": 1651,
      "추억": 1652,
      "했나봐요": 1653,
      "확실": 1654,
      "이별은": 1655,
      "하면서": 1656,
      "결국": 1657,
      "나봐": 1658,
      "이어": 1659,
      "챙겨": 1660,
      "화가": 1661,
      "화장": 1662,
      "관계": 1663,
      "기대": 1664,
      "다음": 1665,
      "매일": 1666,
      "보여": 1667,
      "않은": 1668,
      "잊어": 1669,
      "현실": 1670,
      "생각나": 1671,
      "괜찮아요": 1672,
      "감이": 1673,
      "거리": 1674,
      "내세요": 1675,
      "달라고": 1676,
      "말씀": 1677,
      "세상": 1678,
      "요즘": 1679,
      "있게": 1680,
      "정신": 1681,
      "좋겠어": 1682,
      "중에": 1683,
      "집에": 1684,
      "편이": 1685,
      "충분히": 1686,
      "건가": 1687,
      "건강": 1688,
      "그렇": 1689,
      "대한": 1690,
      "대화를": 1691,
      "도움이": 1692,
      "받고": 1693,
      "수록": 1694,
      "순간": 1695,
      "의미": 1696,
      "사랑한": 1697,
      "좋을까": 1698,
      "가져": 1699,
      "마지": 1700,
      "만남": 1701,
      "먹어": 1702,
      "소리": 1703,
      "심히": 1704,
      "열심히": 1705,
      "있나봐요": 1706,
      "아직도": 1707,
      "물어보세요": 1708,
      "때문에": 1709,
      "마지막": 1710,
      "1년": 1711,
      "건지": 1712,
      "나쁜": 1713,
      "았어": 1714,
      "언젠": 1715,
      "주는": 1716,
      "지요": 1717,
      "추천": 1718,
      "확인": 1719,
      "마음의": 1720,
      "연락을": 1721,
      "가슴": 1722,
      "거야": 1723,
      "나서": 1724,
      "다니": 1725,
      "만들어": 1726,
      "말아요": 1727,
      "부모": 1728,
      "살고": 1729,
      "아침": 1730,
      "얼른": 1731,
      "마시": 1732,
      "말이": 1733,
      "안되": 1734,
      "영화": 1735,
      "일까": 1736,
      "일어": 1737,
      "사랑의": 1738,
      "연락해보세요": 1739,
      "헤어짐": 1740,
      "시간을": 1741,
      "오늘도": 1742,
      "상대방": 1743,
      "같애": 1744,
      "보이": 1745,
      "워요": 1746,
      "으니까요": 1747,
      "이런": 1748,
      "지내": 1749,
      "한번": 1750,
      "한가봐요": 1751,
      "생각해": 1752,
      "짝녀가": 1753,
      "가장": 1754,
      "귀찮": 1755,
      "그리": 1756,
      "다르": 1757,
      "드릴": 1758,
      "마다": 1759,
      "안해": 1760,
      "어느": 1761,
      "어제": 1762,
      "완전": 1763,
      "재회": 1764,
      "정도": 1765,
      "제일": 1766,
      "커피": 1767,
      "사람들": 1768,
      "당신의": 1769,
      "조금만": 1770,
      "이라도": 1771,
      "조심하세요": 1772,
      "부모님": 1773,
      "떨어": 1774,
      "라면": 1775,
      "못하": 1776,
      "바람": 1777,
      "사는": 1778,
      "아닐": 1779,
      "적이": 1780,
      "한지": 1781,
      "핸드": 1782,
      "조금씩": 1783,
      "헤어지고": 1784,
      "감을": 1785,
      "나가": 1786,
      "사진": 1787,
      "알려": 1788,
      "얼마": 1789,
      "없네": 1790,
      "지지": 1791,
      "진심": 1792,
      "남자가": 1793,
      "더니": 1794,
      "많았": 1795,
      "모든": 1796,
      "살아": 1797,
      "성공": 1798,
      "쉬운": 1799,
      "스타": 1800,
      "잊혀": 1801,
      "자연": 1802,
      "잘할": 1803,
      "사람이랑": 1804,
      "기다리": 1805,
      "그래도": 1806,
      "핸드폰": 1807,
      "갑자기": 1808,
      "거죠": 1809,
      "고생": 1810,
      "모습": 1811,
      "스로": 1812,
      "알았는데": 1813,
      "엄마": 1814,
      "없을": 1815,
      "연습": 1816,
      "인정": 1817,
      "하시": 1818,
      "하겠어요": 1819,
      "이별이": 1820,
      "만나고": 1821,
      "자신의": 1822,
      "중요해요": 1823,
      "스러운": 1824,
      "되어": 1825,
      "모두": 1826,
      "문제": 1827,
      "생활": 1828,
      "시켜": 1829,
      "싶어요": 1830,
      "엄청": 1831,
      "예의": 1832,
      "오는": 1833,
      "폭풍": 1834,
      "확신": 1835,
      "사람들이": 1836,
      "여자가": 1837,
      "모르는": 1838,
      "드릴게요": 1839,
      "가끔": 1840,
      "나도": 1841,
      "나와": 1842,
      "날씨": 1843,
      "내려": 1844,
      "복잡": 1845,
      "스스로": 1846,
      "얼굴": 1847,
      "예뻐": 1848,
      "재밌": 1849,
      "했으면": 1850,
      "좋아할": 1851,
      "해야지": 1852,
      "필요한": 1853,
      "짝남한테": 1854,
      "가서": 1855,
      "눈물": 1856,
      "상관": 1857,
      "일을": 1858,
      "자주": 1859,
      "후폭풍": 1860,
      "사람한테": 1861,
      "정리가": 1862,
      "소개팅": 1863,
      "것이": 1864,
      "관리": 1865,
      "됐어": 1866,
      "되길": 1867,
      "되나": 1868,
      "떠나": 1869,
      "무시": 1870,
      "뭘까": 1871,
      "실수": 1872,
      "심해": 1873,
      "아픈": 1874,
      "알바": 1875,
      "저랑": 1876,
      "전에": 1877,
      "짜증": 1878,
      "당신이": 1879,
      "기분이": 1880,
      "감기": 1881,
      "날이": 1882,
      "도와": 1883,
      "력이": 1884,
      "무서": 1885,
      "별로": 1886,
      "아픔": 1887,
      "있다면": 1888,
      "잘하는": 1889,
      "차단": 1890,
      "피곤": 1891,
      "학교": 1892,
      "생각보다": 1893,
      "괜찮은": 1894,
      "모르겠어요": 1895,
      "지금도": 1896,
      "기다려": 1897,
      "어떡해": 1898,
      "게임": 1899,
      "극복": 1900,
      "다녀": 1901,
      "되지": 1902,
      "분이": 1903,
      "빨리": 1904,
      "뿐이에요": 1905,
      "쁘게": 1906,
      "자리": 1907,
      "오늘은": 1908,
      "행복해": 1909,
      "받아들이": 1910,
      "가면": 1911,
      "가야": 1912,
      "가족": 1913,
      "끝났": 1914,
      "라는": 1915,
      "만난": 1916,
      "뭐가": 1917,
      "붙잡": 1918,
      "솔직": 1919,
      "었는데": 1920,
      "일째": 1921,
      "있나": 1922,
      "잘하고": 1923,
      "지켜": 1924,
      "천천": 1925,
      "하셨": 1926,
      "사람도": 1927,
      "사랑에": 1928,
      "친구랑": 1929,
      "해주는": 1930,
      "천천히": 1931,
      "기는": 1932,
      "기로": 1933,
      "기까지": 1934,
      "끝이": 1935,
      "따뜻": 1936,
      "려요": 1937,
      "마주": 1938,
      "맛있게": 1939,
      "벌써": 1940,
      "설레": 1941,
      "외로": 1942,
      "점점": 1943,
      "지가": 1944,
      "직장": 1945,
      "하겠네요": 1946,
      "했어요": 1947,
      "환승": 1948,
      "자신이": 1949,
      "인연이": 1950,
      "확신이": 1951,
      "는지": 1952,
      "두려": 1953,
      "드는": 1954,
      "때는": 1955,
      "마스": 1956,
      "받는": 1957,
      "사세요": 1958,
      "살펴": 1959,
      "아는": 1960,
      "아이": 1961,
      "안녕": 1962,
      "운명": 1963,
      "힘이": 1964,
      "겠지요": 1965,
      "당신을": 1966,
      "놓아": 1967,
      "들을": 1968,
      "배우": 1969,
      "버리세요": 1970,
      "오네": 1971,
      "이면": 1972,
      "잠시": 1973,
      "주변": 1974,
      "해보는": 1975,
      "행동": 1976,
      "힘내세요": 1977,
      "연락하고": 1978,
      "힘들었": 1979,
      "하나씩": 1980,
      "이유가": 1981,
      "2년": 1982,
      "놀러": 1983,
      "눈을": 1984,
      "믿어요": 1985,
      "성격": 1986,
      "시원": 1987,
      "익숙": 1988,
      "일찍": 1989,
      "지났": 1990,
      "집착": 1991,
      "하길": 1992,
      "해줄": 1993,
      "만나는": 1994,
      "서로에게": 1995,
      "사귀고": 1996,
      "아닌데": 1997,
      "스러워": 1998,
      "신경쓰지": 1999,
      "언젠간": 2000,
      "많았어요": 2001,
      "나을": 2002,
      "느껴": 2003,
      "도전": 2004,
      "마련": 2005,
      "무엇": 2006,
      "보지": 2007,
      "슬픈": 2008,
      "않죠": 2009,
      "우울": 2010,
      "정이": 2011,
      "주말": 2012,
      "즐거": 2013,
      "차이": 2014,
      "하던": 2015,
      "하려": 2016,
      "했습니다": 2017,
      "힘들다": 2018,
      "못하겠어": 2019,
      "가기": 2020,
      "곳으로": 2021,
      "나아": 2022,
      "놓고": 2023,
      "다를": 2024,
      "되겠네요": 2025,
      "래도": 2026,
      "리지": 2027,
      "먹으면": 2028,
      "받을": 2029,
      "버렸": 2030,
      "번호": 2031,
      "싶네요": 2032,
      "에도": 2033,
      "여유": 2034,
      "오랜": 2035,
      "원하는": 2036,
      "위해": 2037,
      "이겨": 2038,
      "잊는": 2039,
      "잊지": 2040,
      "자존": 2041,
      "주고": 2042,
      "주무": 2043,
      "카페": 2044,
      "한데": 2045,
      "후련": 2046,
      "힘들게": 2047,
      "있었나봐요": 2048,
      "간다": 2049,
      "거짓": 2050,
      "꿈에": 2051,
      "끝나": 2052,
      "눈이": 2053,
      "다행": 2054,
      "때까지": 2055,
      "뭐야": 2056,
      "보는게": 2057,
      "부러": 2058,
      "알게": 2059,
      "애한테": 2060,
      "없죠": 2061,
      "연인": 2062,
      "용기": 2063,
      "자체": 2064,
      "주지": 2065,
      "최고": 2066,
      "포기": 2067,
      "한다": 2068,
      "헷갈": 2069,
      "좋아해": 2070,
      "생각할": 2071,
      "이별한지": 2072,
      "아무것도": 2073,
      "아무래도": 2074,
      "여친이": 2075,
      "이상형": 2076,
      "이었을": 2077,
      "그분": 2078,
      "들은": 2079,
      "르고": 2080,
      "마요": 2081,
      "맨날": 2082,
      "미리": 2083,
      "봐도": 2084,
      "부족": 2085,
      "비싸": 2086,
      "사를": 2087,
      "소중": 2088,
      "속이": 2089,
      "여보세요": 2090,
      "응원": 2091,
      "타고": 2092,
      "하겠죠": 2093,
      "사랑했던": 2094,
      "이별후": 2095,
      "지금은": 2096,
      "사귀는": 2097,
      "먹어야지": 2098,
      "귀찮아": 2099,
      "주무세요": 2100,
      "갈까": 2101,
      "금방": 2102,
      "기간": 2103,
      "나중에": 2104,
      "늦지": 2105,
      "데려": 2106,
      "되네": 2107,
      "많아요": 2108,
      "먹을": 2109,
      "방학": 2110,
      "보통": 2111,
      "소식": 2112,
      "싸우": 2113,
      "앞에": 2114,
      "어서": 2115,
      "일은": 2116,
      "있습니다": 2117,
      "자는": 2118,
      "장이": 2119,
      "전남친": 2120,
      "져요": 2121,
      "죽을": 2122,
      "태어": 2123,
      "하니": 2124,
      "하나봐요": 2125,
      "해질": 2126,
      "좋아하면": 2127,
      "좋아하게": 2128,
      "친구를": 2129,
      "만나지": 2130,
      "괜찮을까": 2131,
      "아니라": 2132,
      "필요해": 2133,
      "필요해요": 2134,
      "그녀를": 2135,
      "관심이": 2136,
      "않아도": 2137,
      "가져보세요": 2138,
      "예의가": 2139,
      "겠습니다": 2140,
      "나면": 2141,
      "남편이": 2142,
      "내는": 2143,
      "대화": 2144,
      "더라": 2145,
      "마셔": 2146,
      "맛있는": 2147,
      "무리": 2148,
      "버려": 2149,
      "사친": 2150,
      "상담": 2151,
      "시험": 2152,
      "야겠다": 2153,
      "어렵": 2154,
      "어머": 2155,
      "없네요": 2156,
      "었나봐요": 2157,
      "우산": 2158,
      "움을": 2159,
      "월급": 2160,
      "이네": 2161,
      "이러": 2162,
      "작은": 2163,
      "잠깐": 2164,
      "잠이": 2165,
      "중인데": 2166,
      "진정": 2167,
      "충전": 2168,
      "하늘": 2169,
      "하려고": 2170,
      "한거": 2171,
      "했다": 2172,
      "흘렀": 2173,
      "친구한테": 2174,
      "이별의": 2175,
      "당신은": 2176,
      "중요하지": 2177,
      "짝녀한테": 2178,
      "감정을": 2179,
      "헤어졌습니다": 2180,
      "만났어": 2181,
      "스럽게": 2182,
      "확인해보세요": 2183,
      "살펴보세요": 2184,
      "ᅲᅲ": 2185,
      "기회": 2186,
      "대요": 2187,
      "동거": 2188,
      "되고": 2189,
      "드려요": 2190,
      "로맨": 2191,
      "바쁜": 2192,
      "밖에": 2193,
      "받았어": 2194,
      "변화가": 2195,
      "보러": 2196,
      "비밀": 2197,
      "생길": 2198,
      "쇼핑": 2199,
      "쉬고": 2200,
      "아름": 2201,
      "안나": 2202,
      "알고": 2203,
      "예쁘게": 2204,
      "으니": 2205,
      "자책": 2206,
      "장난": 2207,
      "전여친": 2208,
      "종교": 2209,
      "지고": 2210,
      "청소": 2211,
      "사랑해주세요": 2212,
      "친구들": 2213,
      "좋아하는데": 2214,
      "연락해": 2215,
      "연락해도": 2216,
      "하지마세요": 2217,
      "남자애가": 2218,
      "힘들죠": 2219,
      "해야할": 2220,
      "고민이야": 2221,
      "언제나": 2222,
      "누구나": 2223,
      "확실한": 2224,
      "2주": 2225,
      "5년": 2226,
      "가네": 2227,
      "같습니다": 2228,
      "걸로": 2229,
      "겠네": 2230,
      "경우": 2231,
      "그리고": 2232,
      "기만": 2233,
      "꾸준": 2234,
      "당히": 2235,
      "돈이": 2236,
      "됐는데": 2237,
      "되면": 2238,
      "두고": 2239,
      "때도": 2240,
      "리게": 2241,
      "맞춰": 2242,
      "멋진": 2243,
      "못하는": 2244,
      "문자": 2245,
      "미치": 2246,
      "바라": 2247,
      "바로": 2248,
      "바쁘": 2249,
      "분위": 2250,
      "비가": 2251,
      "안되는": 2252,
      "않고": 2253,
      "약속": 2254,
      "없다면": 2255,
      "이번": 2256,
      "자격": 2257,
      "주면": 2258,
      "즐기": 2259,
      "취미": 2260,
      "커플": 2261,
      "타이": 2262,
      "한가": 2263,
      "허전": 2264,
      "사랑할": 2265,
      "사랑하고": 2266,
      "생각만": 2267,
      "힘들어요": 2268,
      "있는지": 2269,
      "짝남이랑": 2270,
      "고민이": 2271,
      "방법이": 2272,
      "이라면": 2273,
      "받아들": 2274,
      "아닌지": 2275,
      "그래요": 2276,
      "궁금해": 2277,
      "가지고": 2278,
      "알려줘": 2279,
      "즐거운": 2280,
      "같네요": 2281,
      "곳이": 2282,
      "당연": 2283,
      "더라고": 2284,
      "되는데": 2285,
      "드디": 2286,
      "드라": 2287,
      "못해": 2288,
      "받지": 2289,
      "스킨": 2290,
      "싫다": 2291,
      "싫은": 2292,
      "애랑": 2293,
      "어울": 2294,
      "어쩌": 2295,
      "여러": 2296,
      "왔는데": 2297,
      "일도": 2298,
      "잊고": 2299,
      "잖아요": 2300,
      "절대": 2301,
      "조언": 2302,
      "존중": 2303,
      "좋겠죠": 2304,
      "줬으면": 2305,
      "칭찬": 2306,
      "통보": 2307,
      "퇴근": 2308,
      "해결": 2309,
      "사람에게": 2310,
      "친구들이": 2311,
      "여자애가": 2312,
      "힘들겠지만": 2313,
      "좋은데": 2314,
      "이제는": 2315,
      "가슴이": 2316,
      "드디어": 2317,
      "10": 2318,
      "가를": 2319,
      "거기까지": 2320,
      "것을": 2321,
      "내서": 2322,
      "드시": 2323,
      "말해": 2324,
      "몸이": 2325,
      "뭐라고": 2326,
      "뭔가": 2327,
      "뭔지": 2328,
      "미워": 2329,
      "성이": 2330,
      "수가": 2331,
      "신가봐요": 2332,
      "안경": 2333,
      "안하고": 2334,
      "않길": 2335,
      "야죠": 2336,
      "예민": 2337,
      "예쁜": 2338,
      "오면": 2339,
      "올려": 2340,
      "있네요": 2341,
      "잊을": 2342,
      "잠을": 2343,
      "전환": 2344,
      "줄까": 2345,
      "지쳤": 2346,
      "차분": 2347,
      "취직": 2348,
      "학원": 2349,
      "한잔": 2350,
      "헤아": 2351,
      "사람에": 2352,
      "시간은": 2353,
      "괜찮을": 2354,
      "않는다면": 2355,
      "미련이": 2356,
      "어려워": 2357,
      "어느덧": 2358,
      "아닐까요": 2359,
      "두려워": 2360,
      "로맨틱": 2361,
      "더라고요": 2362,
      "가야지": 2363,
      "같네": 2364,
      "거겠죠": 2365,
      "그대로": 2366,
      "기본": 2367,
      "나랑": 2368,
      "답니다": 2369,
      "두근": 2370,
      "두달": 2371,
      "만의": 2372,
      "말도": 2373,
      "먹었": 2374,
      "문제가": 2375,
      "바보": 2376,
      "생긴": 2377,
      "서운": 2378,
      "쉬어": 2379,
      "슬프": 2380,
      "썸녀": 2381,
      "쓰는": 2382,
      "어쩔": 2383,
      "음이": 2384,
      "이기": 2385,
      "전히": 2386,
      "첫사랑": 2387,
      "치고": 2388,
      "키우": 2389,
      "편지": 2390,
      "한게": 2391,
      "해져": 2392,
      "해졌": 2393,
      "했을": 2394,
      "사람과": 2395,
      "사랑하면": 2396,
      "생각하고": 2397,
      "마음도": 2398,
      "마음은": 2399,
      "좋아하는게": 2400,
      "헤어져": 2401,
      "기다릴": 2402,
      "물어보는": 2403,
      "부담스러워": 2404,
      "그러면": 2405,
      "축하해요": 2406,
      "자연스러운": 2407,
      "짜증나": 2408,
      "받아들이는": 2409,
      "다행이에요": 2410,
      "타이밍": 2411,
      "갖고": 2412,
      "거지": 2413,
      "것보다": 2414,
      "군대": 2415,
      "귀여": 2416,
      "끝내": 2417,
      "나오": 2418,
      "나온": 2419,
      "능력이": 2420,
      "니가": 2421,
      "당황": 2422,
      "덤덤": 2423,
      "두세요": 2424,
      "떨려": 2425,
      "리스": 2426,
      "말하세요": 2427,
      "못한": 2428,
      "못하고": 2429,
      "뭐든": 2430,
      "배워": 2431,
      "변화": 2432,
      "불편": 2433,
      "사과": 2434,
      "상이에요": 2435,
      "생님": 2436,
      "생일": 2437,
      "선생님": 2438,
      "아서": 2439,
      "용기를": 2440,
      "워질": 2441,
      "이지": 2442,
      "이라고": 2443,
      "일주": 2444,
      "있고": 2445,
      "있지": 2446,
      "있나요": 2447,
      "자유": 2448,
      "저를": 2449,
      "적응": 2450,
      "적당히": 2451,
      "졸업": 2452,
      "좋았": 2453,
      "지우": 2454,
      "집중": 2455,
      "최선": 2456,
      "출근": 2457,
      "치가": 2458,
      "프로": 2459,
      "하니까": 2460,
      "흔들": 2461,
      "사람마다": 2462,
      "힘들겠어요": 2463,
      "사람이네요": 2464,
      "보고싶어": 2465,
      "기다리고": 2466,
      "준비가": 2467,
      "후회하지": 2468,
      "관심을": 2469,
      "충분한": 2470,
      "헤어졌어": 2471,
      "썸남이": 2472,
      "않았으면": 2473,
      "어려운": 2474,
      "화장실": 2475,
      "다음에는": 2476,
      "진심으로": 2477,
      "무서워": 2478,
      "자책하지": 2479,
      "꾸준히": 2480,
      "가도": 2481,
      "가자고": 2482,
      "고마": 2483,
      "그건": 2484,
      "기운": 2485,
      "길이": 2486,
      "끝을": 2487,
      "냄새": 2488,
      "놀이": 2489,
      "누가": 2490,
      "당당": 2491,
      "동생": 2492,
      "따로": 2493,
      "먹는": 2494,
      "몰랐": 2495,
      "배려": 2496,
      "병원": 2497,
      "보냈": 2498,
      "보니": 2499,
      "부탁": 2500,
      "삭제": 2501,
      "생기": 2502,
      "식을": 2503,
      "싶네": 2504,
      "싶지": 2505,
      "아보세요": 2506,
      "았나봐요": 2507,
      "얘기": 2508,
      "어색": 2509,
      "연예": 2510,
      "오빠": 2511,
      "왔다": 2512,
      "우선": 2513,
      "원래": 2514,
      "위험": 2515,
      "이성": 2516,
      "있겠어요": 2517,
      "있잖아요": 2518,
      "저에게": 2519,
      "적극": 2520,
      "제대로": 2521,
      "좋지": 2522,
      "질투": 2523,
      "집안": 2524,
      "프사": 2525,
      "피해": 2526,
      "함이": 2527,
      "힘내": 2528,
      "사람의": 2529,
      "사랑해": 2530,
      "좋아하는지": 2531,
      "하지만": 2532,
      "만나보세요": 2533,
      "해야할까": 2534,
      "자신에게": 2535,
      "이라는": 2536,
      "인가봐": 2537,
      "그녀가": 2538,
      "감정이": 2539,
      "해주고": 2540,
      "남친이": 2541,
      "않을까요": 2542,
      "스타일": 2543,
      "후폭풍이": 2544,
      "스킨십": 2545,
      "3년": 2546,
      "3개월": 2547,
      "가는데": 2548,
      "감사": 2549,
      "경험": 2550,
      "구나": 2551,
      "까봐": 2552,
      "꿈을": 2553,
      "나눠": 2554,
      "나타": 2555,
      "담배": 2556,
      "됩니다": 2557,
      "둘이": 2558,
      "르는": 2559,
      "리가": 2560,
      "말하는": 2561,
      "무너": 2562,
      "무뎌": 2563,
      "발표": 2564,
      "버텨": 2565,
      "본인": 2566,
      "부분": 2567,
      "사실": 2568,
      "쉽게": 2569,
      "시길": 2570,
      "안타": 2571,
      "안들어": 2572,
      "야할": 2573,
      "어플": 2574,
      "없다": 2575,
      "왔네": 2576,
      "으시": 2577,
      "이요": 2578,
      "인사": 2579,
      "인상": 2580,
      "일이에요": 2581,
      "잠수": 2582,
      "좋다": 2583,
      "착각": 2584,
      "하다고": 2585,
      "하자고": 2586,
      "해지는": 2587,
      "좋아한": 2588,
      "만나자고": 2589,
      "자신감을": 2590,
      "있어도": 2591,
      "일이네요": 2592,
      "하나도": 2593,
      "그런가봐요": 2594,
      "행복한": 2595,
      "서로를": 2596,
      "후회할": 2597,
      "머리가": 2598,
      "상황을": 2599,
      "완전히": 2600,
      "잊혀지": 2601,
      "성격이": 2602,
      "거짓말": 2603,
      "데려다": 2604,
      "아름다": 2605,
      "연예인": 2606,
      "4년": 2607,
      "고쳐": 2608,
      "귀엽": 2609,
      "그랬": 2610,
      "끝은": 2611,
      "놀아요": 2612,
      "눈에": 2613,
      "대해": 2614,
      "듣고": 2615,
      "리면": 2616,
      "맘고생": 2617,
      "바꿔": 2618,
      "바빠": 2619,
      "발전": 2620,
      "벗어": 2621,
      "불러": 2622,
      "살짝": 2623,
      "새벽": 2624,
      "시다": 2625,
      "쓰레": 2626,
      "아는데": 2627,
      "앞에서": 2628,
      "었네": 2629,
      "오지": 2630,
      "위한": 2631,
      "이가": 2632,
      "이길": 2633,
      "일상": 2634,
      "있겠죠": 2635,
      "장을": 2636,
      "장거리": 2637,
      "점심": 2638,
      "조절": 2639,
      "존재": 2640,
      "지쳐": 2641,
      "크리스": 2642,
      "피부": 2643,
      "하러": 2644,
      "하거나": 2645,
      "한동안": 2646,
      "호감이": 2647,
      "생각하세요": 2648,
      "힘들지": 2649,
      "만나세요": 2650,
      "혼자가": 2651,
      "아무리": 2652,
      "시작해보세요": 2653,
      "인가요": 2654,
      "이상한": 2655,
      "축하드려요": 2656,
      "말씀해주세요": 2657,
      "지내고": 2658,
      "그리워": 2659,
      "연습을": 2660,
      "눈물이": 2661,
      "놓아주세요": 2662,
      "무엇이": 2663,
      "크리스마스": 2664,
      "NS": 2665,
      "SNS": 2666,
      "가치": 2667,
      "갔어": 2668,
      "견디": 2669,
      "계획": 2670,
      "과정": 2671,
      "괜히": 2672,
      "괴롭": 2673,
      "그럼": 2674,
      "꿨어": 2675,
      "냐고": 2676,
      "느끼": 2677,
      "다이어": 2678,
      "동물": 2679,
      "떠난": 2680,
      "력을": 2681,
      "만이": 2682,
      "면접": 2683,
      "무섭": 2684,
      "문득": 2685,
      "바뀌": 2686,
      "반복": 2687,
      "배고": 2688,
      "속상": 2689,
      "쉬는": 2690,
      "애매": 2691,
      "없나": 2692,
      "없애": 2693,
      "없는데": 2694,
      "올까": 2695,
      "올라": 2696,
      "우연": 2697,
      "웨딩": 2698,
      "의지": 2699,
      "이거": 2700,
      "이는": 2701,
      "이름": 2702,
      "이사": 2703,
      "이용": 2704,
      "잡고": 2705,
      "저녁": 2706,
      "줘도": 2707,
      "줬어": 2708,
      "집에서": 2709,
      "치는": 2710,
      "타는데": 2711,
      "하다면": 2712,
      "하다가": 2713,
      "할텐데": 2714,
      "했네": 2715,
      "현상이에요": 2716,
      "사랑하는데": 2717,
      "생각하는": 2718,
      "친구로": 2719,
      "연락하면": 2720,
      "남자를": 2721,
      "으면서": 2722,
      "만나서": 2723,
      "좋을텐데": 2724,
      "모르겠네요": 2725,
      "이야기해보세요": 2726,
      "시작이": 2727,
      "여자친구와": 2728,
      "이상해": 2729,
      "괜찮아졌": 2730,
      "괜찮아질": 2731,
      "위로해": 2732,
      "추억이": 2733,
      "말씀해보세요": 2734,
      "사랑한다고": 2735,
      "자연스럽게": 2736,
      "외로워": 2737,
      "여유를": 2738,
      "오랜만에": 2739,
      "다이어트": 2740,
      "6개월": 2741,
      "가까": 2742,
      "가벼": 2743,
      "간절": 2744,
      "갔다": 2745,
      "같지": 2746,
      "거니": 2747,
      "거울": 2748,
      "거절": 2749,
      "계절": 2750,
      "꿈이": 2751,
      "나게": 2752,
      "나의": 2753,
      "누군": 2754,
      "느라": 2755,
      "는거": 2756,
      "도서": 2757,
      "돈을": 2758,
      "될까요": 2759,
      "려면": 2760,
      "리기": 2761,
      "많죠": 2762,
      "못할": 2763,
      "뭐하지": 2764,
      "미래": 2765,
      "바뀔": 2766,
      "버스": 2767,
      "비교": 2768,
      "사고": 2769,
      "사귄": 2770,
      "사라": 2771,
      "살까": 2772,
      "상사": 2773,
      "소한": 2774,
      "속에": 2775,
      "쉬세요": 2776,
      "슬퍼": 2777,
      "시키": 2778,
      "신고": 2779,
      "신혼": 2780,
      "썸이": 2781,
      "썸타는": 2782,
      "아빠": 2783,
      "안와": 2784,
      "안해도": 2785,
      "않네": 2786,
      "앞으로": 2787,
      "었을": 2788,
      "였어": 2789,
      "영원": 2790,
      "오해": 2791,
      "을거예요": 2792,
      "음을": 2793,
      "이혼": 2794,
      "인듯": 2795,
      "인형": 2796,
      "일지도": 2797,
      "졸려": 2798,
      "중간": 2799,
      "질까": 2800,
      "참고": 2801,
      "취업": 2802,
      "할때": 2803,
      "호감을": 2804,
      "하는지": 2805,
      "좋아할까": 2806,
      "생각나는": 2807,
      "연락처": 2808,
      "연락하지": 2809,
      "여자애": 2810,
      "사람이에요": 2811,
      "있는게": 2812,
      "만나면": 2813,
      "필요할": 2814,
      "들어드릴게요": 2815,
      "결혼식": 2816,
      "기다리는": 2817,
      "다가도": 2818,
      "짝사랑하는": 2819,
      "가능할": 2820,
      "상처를": 2821,
      "하다보면": 2822,
      "생겼어": 2823,
      "궁금하네요": 2824,
      "썸남한테": 2825,
      "내일은": 2826,
      "선택일": 2827,
      "부담스럽": 2828,
      "지나갈": 2829,
      "않았어요": 2830,
      "해지면": 2831,
      "나이가": 2832,
      "만났는데": 2833,
      "습관이에요": 2834,
      "확실히": 2835,
      "생각나네": 2836,
      "일어나": 2837,
      "날씨가": 2838,
      "붙잡고": 2839,
      "지켜보세요": 2840,
      "소중한": 2841,
      "분위기": 2842,
      "어쩌지": 2843,
      "쓰레기": 2844,
      "도서관": 2845,
      "가봅니다": 2846,
      "갑작": 2847,
      "개인": 2848,
      "거려": 2849,
      "것만": 2850,
      "것은": 2851,
      "결과": 2852,
      "고통": 2853,
      "기념": 2854,
      "기울": 2855,
      "깔끔": 2856,
      "꿈에서": 2857,
      "남을": 2858,
      "남편": 2859,
      "내고": 2860,
      "놀아": 2861,
      "느려": 2862,
      "대단": 2863,
      "대학": 2864,
      "됐으면": 2865,
      "되죠": 2866,
      "되기도": 2867,
      "된다고": 2868,
      "드네": 2869,
      "듭니다": 2870,
      "때네요": 2871,
      "먹을까": 2872,
      "목소리": 2873,
      "미세": 2874,
      "미안": 2875,
      "미친": 2876,
      "배가": 2877,
      "버리": 2878,
      "보일": 2879,
      "봤어": 2880,
      "분들": 2881,
      "비슷": 2882,
      "사귈": 2883,
      "상태": 2884,
      "소문": 2885,
      "신청": 2886,
      "않으면": 2887,
      "야근": 2888,
      "역시": 2889,
      "옆에": 2890,
      "와서": 2891,
      "완벽": 2892,
      "왔으면": 2893,
      "왔습니다": 2894,
      "으려고": 2895,
      "이게": 2896,
      "이다": 2897,
      "이럴": 2898,
      "이루": 2899,
      "일에": 2900,
      "있네": 2901,
      "있다": 2902,
      "있으": 2903,
      "있으니까요": 2904,
      "전부": 2905,
      "전해보세요": 2906,
      "조급": 2907,
      "종일": 2908,
      "중인": 2909,
      "지네": 2910,
      "지워": 2911,
      "짝사랑이": 2912,
      "차가": 2913,
      "차별": 2914,
      "치과": 2915,
      "카드": 2916,
      "크게": 2917,
      "편하게": 2918,
      "호감": 2919,
      "휴가": 2920,
      "희망": 2921,
      "하는거": 2922,
      "하는건": 2923,
      "좋아하고": 2924,
      "사랑해서": 2925,
      "연락하는": 2926,
      "남자애": 2927,
      "해야죠": 2928,
      "연애는": 2929,
      "필요하죠": 2930,
      "고민하고": 2931,
      "아무도": 2932,
      "저도요": 2933,
      "이야기를": 2934,
      "이야기네요": 2935,
      "하기도": 2936,
      "그녀의": 2937,
      "여자친구의": 2938,
      "걱정돼": 2939,
      "그래서": 2940,
      "알아보세요": 2941,
      "면서도": 2942,
      "남자친구의": 2943,
      "이해해주세요": 2944,
      "어디서": 2945,
      "노력해보세요": 2946,
      "어떡하지": 2947,
      "상황이": 2948,
      "어때요": 2949,
      "보여요": 2950,
      "잊어버리세요": 2951,
      "건강에": 2952,
      "적이든": 2953,
      "얼마나": 2954,
      "엄마가": 2955,
      "예뻐요": 2956,
      "무서운": 2957,
      "마스크": 2958,
      "헷갈리게": 2959,
      "흘렀네요": 2960,
      "친구들과": 2961,
      "받아들여": 2962,
      "지쳤나봐요": 2963,
      "헤어져야": 2964,
      "미세먼": 2965,
      "3주": 2966,
      "~~": 2967,
      "갑니다": 2968,
      "거의": 2969,
      "견뎌": 2970,
      "결심": 2971,
      "곳에서": 2972,
      "공허": 2973,
      "권태": 2974,
      "그동안": 2975,
      "긍정": 2976,
      "깨달": 2977,
      "나쁘": 2978,
      "남았": 2979,
      "남의": 2980,
      "남사친": 2981,
      "내보세요": 2982,
      "놀고": 2983,
      "늦게": 2984,
      "다리": 2985,
      "다보면": 2986,
      "답이": 2987,
      "더워": 2988,
      "됐네": 2989,
      "드리고": 2990,
      "러워": 2991,
      "려도": 2992,
      "립니다": 2993,
      "마무리": 2994,
      "말투": 2995,
      "말할": 2996,
      "먹기": 2997,
      "멀어": 2998,
      "몰라": 2999,
      "무덤덤": 3000,
      "받은": 3001,
      "변화를": 3002,
      "보아요": 3003,
      "봤는데": 3004,
      "부럽": 3005,
      "부여": 3006,
      "분명": 3007,
      "사야": 3008,
      "사회": 3009,
      "샀어": 3010,
      "상을": 3011,
      "선톡": 3012,
      "속에서": 3013,
      "시계": 3014,
      "시어머": 3015,
      "실망": 3016,
      "실감이": 3017,
      "심호": 3018,
      "썸인지": 3019,
      "아까": 3020,
      "않게": 3021,
      "않으니까요": 3022,
      "알았": 3023,
      "알면서도": 3024,
      "야경": 3025,
      "어린": 3026,
      "어야": 3027,
      "어장": 3028,
      "없다고": 3029,
      "었던": 3030,
      "었어요": 3031,
      "여기까지": 3032,
      "여사친": 3033,
      "였나봐요": 3034,
      "용기가": 3035,
      "원망": 3036,
      "유지": 3037,
      "은근": 3038,
      "이건": 3039,
      "이고": 3040,
      "인간": 3041,
      "있지만": 3042,
      "잘해줘": 3043,
      "저한테": 3044,
      "점을": 3045,
      "정확": 3046,
      "지면": 3047,
      "추워": 3048,
      "친한": 3049,
      "택시": 3050,
      "판단": 3051,
      "편할": 3052,
      "평소": 3053,
      "할게요": 3054,
      "해보": 3055,
      "혹시": 3056,
      "사람으로": 3057,
      "좋아해도": 3058,
      "사랑하지": 3059,
      "생각한": 3060,
      "남자들은": 3061,
      "만나는게": 3062,
      "해야겠다": 3063,
      "아니라고": 3064,
      "연애를": 3065,
      "필요는": 3066,
      "보고싶다": 3067,
      "당신도": 3068,
      "기다려보세요": 3069,
      "행복하게": 3070,
      "선물이": 3071,
      "짝녀랑": 3072,
      "서로의": 3073,
      "후회가": 3074,
      "여행을": 3075,
      "여자친구랑": 3076,
      "상처가": 3077,
      "언제쯤": 3078,
      "헤어졌는데": 3079,
      "돌아오": 3080,
      "생겼는데": 3081,
      "결정을": 3082,
      "결정이었을": 3083,
      "이유를": 3084,
      "가지세요": 3085,
      "회사에서": 3086,
      "인생은": 3087,
      "사이가": 3088,
      "잊어야": 3089,
      "만들어보세요": 3090,
      "아침에": 3091,
      "상대방을": 3092,
      "사람들에게": 3093,
      "무시하세요": 3094,
      "하셨네요": 3095,
      "즐기세요": 3096,
      "당당하게": 3097,
      "안타깝": 3098,
      "심호흡": 3099,
      "ᄒᄒ": 3100,
      "거를": 3101,
      "겨울": 3102,
      "곳에": 3103,
      "공통": 3104,
      "국어": 3105,
      "근처": 3106,
      "깊은": 3107,
      "끝난": 3108,
      "나네": 3109,
      "나올": 3110,
      "나은": 3111,
      "나왔어": 3112,
      "나가세요": 3113,
      "냐에": 3114,
      "다들": 3115,
      "다양": 3116,
      "달째": 3117,
      "대체": 3118,
      "두번": 3119,
      "듯이": 3120,
      "디션": 3121,
      "때론": 3122,
      "때를": 3123,
      "똑같은": 3124,
      "렸어": 3125,
      "로워": 3126,
      "만든": 3127,
      "만족": 3128,
      "말은": 3129,
      "말이에요": 3130,
      "맘이": 3131,
      "멈추": 3132,
      "미안해": 3133,
      "바꾸": 3134,
      "보기": 3135,
      "살이": 3136,
      "생겨": 3137,
      "선이": 3138,
      "술이": 3139,
      "스키": 3140,
      "시기": 3141,
      "쐬고": 3142,
      "아예": 3143,
      "안전": 3144,
      "안하는": 3145,
      "안돼요": 3146,
      "안됐는데": 3147,
      "없으면": 3148,
      "울적": 3149,
      "음악": 3150,
      "의심": 3151,
      "이래": 3152,
      "일까요": 3153,
      "있길": 3154,
      "있겠지": 3155,
      "자세": 3156,
      "전공": 3157,
      "정상": 3158,
      "좋겠지": 3159,
      "좋지만": 3160,
      "주말이": 3161,
      "중입니다": 3162,
      "지난": 3163,
      "지로": 3164,
      "진급": 3165,
      "짧은": 3166,
      "차근": 3167,
      "채워": 3168,
      "초대": 3169,
      "축구": 3170,
      "취향": 3171,
      "치지": 3172,
      "클럽": 3173,
      "편한": 3174,
      "평생": 3175,
      "피할": 3176,
      "현금": 3177,
      "현재": 3178,
      "좋아하던": 3179,
      "생각하지": 3180,
      "연락은": 3181,
      "있을거예요": 3182,
      "여자를": 3183,
      "여자애한테": 3184,
      "해야겠지": 3185,
      "자신에": 3186,
      "아니면": 3187,
      "아니라면": 3188,
      "모르고": 3189,
      "없어서": 3190,
      "정리하는게": 3191,
      "지금처럼": 3192,
      "행복할": 3193,
      "준비를": 3194,
      "준비해보세요": 3195,
      "선물을": 3196,
      "찾아올": 3197,
      "방법을": 3198,
      "방법이에요": 3199,
      "헤어지자고": 3200,
      "그녀는": 3201,
      "가능성이": 3202,
      "감정에": 3203,
      "많은데": 3204,
      "상대를": 3205,
      "힘들어서": 3206,
      "충분해요": 3207,
      "운동을": 3208,
      "선택을": 3209,
      "아프네": 3210,
      "한달이": 3211,
      "지나갔": 3212,
      "노래방": 3213,
      "달라지는": 3214,
      "위로가": 3215,
      "사랑한다면": 3216,
      "언젠가": 3217,
      "상대방이": 3218,
      "떨어졌어": 3219,
      "사진을": 3220,
      "모습을": 3221,
      "모습이": 3222,
      "만난지": 3223,
      "힘들었을": 3224,
      "버렸어": 3225,
      "이겨낼": 3226,
      "자존감이": 3227,
      "부러워": 3228,
      "부러워요": 3229,
      "용기내서": 3230,
      "최고죠": 3231,
      "응원합니다": 3232,
      "진정한": 3233,
      "해야할지": 3234,
      "드라마": 3235,
      "이성으로": 3236,
      "적극적으로": 3237,
      "한동안은": 3238,
      "가치관": 3239,
      "부담스럽지": 3240,
      "6년": 3241,
      "ns": 3242,
      "sns": 3243,
      "가봐": 3244,
      "각자": 3245,
      "간의": 3246,
      "건데": 3247,
      "걸릴": 3248,
      "겨보세요": 3249,
      "골라": 3250,
      "교회": 3251,
      "글을": 3252,
      "긴장": 3253,
      "끝까지": 3254,
      "내요": 3255,
      "냉장": 3256,
      "너에게": 3257,
      "넘어": 3258,
      "단단": 3259,
      "달달": 3260,
      "답을": 3261,
      "당장": 3262,
      "당했어": 3263,
      "더라도": 3264,
      "들고": 3265,
      "떨리": 3266,
      "막히": 3267,
      "말까": 3268,
      "말아": 3269,
      "맛이": 3270,
      "맥주": 3271,
      "먹었어": 3272,
      "모아": 3273,
      "뭐하고": 3274,
      "믿음이": 3275,
      "바꿀": 3276,
      "반대": 3277,
      "받았": 3278,
      "변덕": 3279,
      "보낼": 3280,
      "불행": 3281,
      "사용": 3282,
      "사소한": 3283,
      "산책": 3284,
      "새로": 3285,
      "설렘": 3286,
      "셀프": 3287,
      "셨나봐요": 3288,
      "소원": 3289,
      "소화": 3290,
      "수는": 3291,
      "싶습니다": 3292,
      "썸인데": 3293,
      "쓰고": 3294,
      "쓸데": 3295,
      "아지": 3296,
      "알면": 3297,
      "어찌": 3298,
      "없지": 3299,
      "없나봐요": 3300,
      "예쁘": 3301,
      "온전히": 3302,
      "우세요": 3303,
      "운을": 3304,
      "울까": 3305,
      "움직": 3306,
      "웠어": 3307,
      "이불": 3308,
      "이팅": 3309,
      "인기가": 3310,
      "있겠네요": 3311,
      "있다고": 3312,
      "있다는": 3313,
      "잘해": 3314,
      "적어보세요": 3315,
      "제발": 3316,
      "제자리": 3317,
      "조건": 3318,
      "조차": 3319,
      "좋겠지만": 3320,
      "줘야": 3321,
      "진다": 3322,
      "진실": 3323,
      "집이": 3324,
      "집들이": 3325,
      "최악": 3326,
      "출발": 3327,
      "치료": 3328,
      "태도": 3329,
      "파이팅": 3330,
      "페북": 3331,
      "피하세요": 3332,
      "하긴": 3333,
      "하셔": 3334,
      "하니까요": 3335,
      "하겠습니다": 3336,
      "할까요": 3337,
      "했나": 3338,
      "했겠어요": 3339,
      "후가": 3340,
      "흘러": 3341,
      "좋아해요": 3342,
      "사랑으로": 3343,
      "생각에": 3344,
      "생각은": 3345,
      "생각이에요": 3346,
      "마음으로": 3347,
      "이별통보": 3348,
      "남자는": 3349,
      "힘들겠네요": 3350,
      "힘들겠지": 3351,
      "시간에": 3352,
      "있는거": 3353,
      "만나기로": 3354,
      "아니야": 3355,
      "연애가": 3356,
      "필요하겠네요": 3357,
      "있어서": 3358,
      "일이네": 3359,
      "정리할": 3360,
      "중요하죠": 3361,
      "다가가": 3362,
      "준비하는": 3363,
      "물어봐": 3364,
      "고백해보세요": 3365,
      "고백해도": 3366,
      "공부는": 3367,
      "하루하루": 3368,
      "기분전환": 3369,
      "남자친구와": 3370,
      "이었으면": 3371,
      "보내고": 3372,
      "썸남이랑": 3373,
      "아프네요": 3374,
      "느낌이": 3375,
      "나이는": 3376,
      "습관을": 3377,
      "관계를": 3378,
      "그렇지": 3379,
      "그렇지만": 3380,
      "마시고": 3381,
      "보이고": 3382,
      "부모님이": 3383,
      "떨어져": 3384,
      "알려주세요": 3385,
      "진심을": 3386,
      "살아야": 3387,
      "따뜻한": 3388,
      "힘들었겠어요": 3389,
      "시원한": 3390,
      "지났네": 3391,
      "기회가": 3392,
      "차분히": 3393,
      "최선의": 3394,
      "아름다운": 3395,
      "무엇이든": 3396,
      "부럽네요": 3397,
      "냉장고": 3398,
      "사용해보세요": 3399,
      "..": 3400,
      "30": 3401,
      "7년": 3402,
      "8년": 3403,
      "가락": 3404,
      "간접": 3405,
      "감당": 3406,
      "걸리": 3407,
      "걸어보세요": 3408,
      "고맙": 3409,
      "고치": 3410,
      "공무": 3411,
      "공시": 3412,
      "과식": 3413,
      "교양": 3414,
      "규직": 3415,
      "그만큼": 3416,
      "글로": 3417,
      "끝인": 3418,
      "나나": 3419,
      "나에게": 3420,
      "나가는": 3421,
      "난다": 3422,
      "남기": 3423,
      "남아": 3424,
      "낫죠": 3425,
      "났어": 3426,
      "내리": 3427,
      "달콤": 3428,
      "대폰": 3429,
      "데이": 3430,
      "도록": 3431,
      "도시": 3432,
      "돌려보세요": 3433,
      "되기": 3434,
      "드려보세요": 3435,
      "들었어": 3436,
      "릴까": 3437,
      "마실": 3438,
      "만한": 3439,
      "많을": 3440,
      "말하지": 3441,
      "맘에": 3442,
      "맛난": 3443,
      "매력": 3444,
      "머릿": 3445,
      "메뉴": 3446,
      "면도": 3447,
      "목표": 3448,
      "물리": 3449,
      "뭐라도": 3450,
      "믿어보세요": 3451,
      "밀당": 3452,
      "바쁘게": 3453,
      "반지": 3454,
      "벚꽃": 3455,
      "변명": 3456,
      "보험": 3457,
      "부딪": 3458,
      "부로": 3459,
      "부를": 3460,
      "부자": 3461,
      "부분이": 3462,
      "빌려": 3463,
      "빠르": 3464,
      "샤워": 3465,
      "셔보세요": 3466,
      "소비": 3467,
      "솔로": 3468,
      "술을": 3469,
      "시겠어요": 3470,
      "시기가": 3471,
      "식이": 3472,
      "심리": 3473,
      "심심": 3474,
      "썸의": 3475,
      "아껴": 3476,
      "아플": 3477,
      "않는데": 3478,
      "않겠지만": 3479,
      "앞머리": 3480,
      "애정": 3481,
      "약이": 3482,
      "억지로": 3483,
      "없겠네요": 3484,
      "없지만": 3485,
      "없을까": 3486,
      "었으면": 3487,
      "여전히": 3488,
      "오랫": 3489,
      "온다": 3490,
      "외롭": 3491,
      "용돈": 3492,
      "용서": 3493,
      "우면": 3494,
      "울어도": 3495,
      "유증": 3496,
      "을지도": 3497,
      "의사를": 3498,
      "이뤄": 3499,
      "이예요": 3500,
      "인기": 3501,
      "인이": 3502,
      "있음": 3503,
      "있으니": 3504,
      "잊으세요": 3505,
      "잘했어요": 3506,
      "장면": 3507,
      "장소": 3508,
      "장에서": 3509,
      "전화를": 3510,
      "절약": 3511,
      "정규직": 3512,
      "제를": 3513,
      "죽고": 3514,
      "중독": 3515,
      "지기": 3516,
      "지를": 3517,
      "지칠": 3518,
      "진지": 3519,
      "차리세요": 3520,
      "참아": 3521,
      "청첩": 3522,
      "파혼": 3523,
      "포즈": 3524,
      "풀릴": 3525,
      "하느라": 3526,
      "한다면": 3527,
      "했나봐": 3528,
      "했더니": 3529,
      "헬스": 3530,
      "회식": 3531,
      "후에": 3532,
      "휴대폰": 3533,
      "힘듭니다": 3534,
      "좋아하나": 3535,
      "좋아해주는": 3536,
      "생각하면": 3537,
      "친구의": 3538,
      "하고싶어": 3539,
      "이별에는": 3540,
      "헤어질": 3541,
      "있을지도": 3542,
      "여자랑": 3543,
      "여자한테": 3544,
      "여자들은": 3545,
      "남자들": 3546,
      "남자랑": 3547,
      "시간도": 3548,
      "해야하나": 3549,
      "자신만": 3550,
      "필요하다면": 3551,
      "혼자만": 3552,
      "혼자서": 3553,
      "정리를": 3554,
      "지금이라도": 3555,
      "선물은": 3556,
      "힘든가봅니다": 3557,
      "아무렇": 3558,
      "고백했는데": 3559,
      "이라니": 3560,
      "하기는": 3561,
      "사귀기": 3562,
      "걱정하지": 3563,
      "남자친구랑": 3564,
      "되는지": 3565,
      "표현이": 3566,
      "헤어졌네": 3567,
      "아프다": 3568,
      "스트레칭": 3569,
      "인생이": 3570,
      "달라지": 3571,
      "만들어요": 3572,
      "맞는걸까": 3573,
      "관계가": 3574,
      "세상에": 3575,
      "마시면": 3576,
      "다르겠지만": 3577,
      "스스로에게": 3578,
      "피곤해": 3579,
      "극복할": 3580,
      "다녀오세요": 3581,
      "솔직한": 3582,
      "솔직하게": 3583,
      "따뜻하게": 3584,
      "환승이별": 3585,
      "태어난": 3586,
      "이러지": 3587,
      "바쁜가봐요": 3588,
      "자격이": 3589,
      "자격증": 3590,
      "드라이": 3591,
      "친구들이랑": 3592,
      "먹었다": 3593,
      "귀여워": 3594,
      "일주일": 3595,
      "프로포즈": 3596,
      "병원에": 3597,
      "나눠보세요": 3598,
      "벗어나": 3599,
      "새벽에": 3600,
      "배고파": 3601,
      "누군가를": 3602,
      "공무원": 3603,
      "도시락": 3604,
      "2달": 3605,
      "5개월": 3606,
      "ᅮᅮ": 3607,
      "감성": 3608,
      "개강": 3609,
      "거랑": 3610,
      "거면": 3611,
      "거같아": 3612,
      "겼어": 3613,
      "경쟁": 3614,
      "곁에": 3615,
      "과일": 3616,
      "과정이": 3617,
      "귀가": 3618,
      "그는": 3619,
      "그대": 3620,
      "기원": 3621,
      "기세요": 3622,
      "길어": 3623,
      "깨끗": 3624,
      "꽃다": 3625,
      "나지": 3626,
      "나혼자": 3627,
      "나보다": 3628,
      "나을까": 3629,
      "남겨": 3630,
      "남은": 3631,
      "낭비": 3632,
      "너를": 3633,
      "놀랐": 3634,
      "눈치": 3635,
      "늦은": 3636,
      "달려": 3637,
      "답장": 3638,
      "대출": 3639,
      "데는": 3640,
      "데요": 3641,
      "도움을": 3642,
      "돼서": 3643,
      "되는게": 3644,
      "될지도": 3645,
      "드립니다": 3646,
      "드셔보세요": 3647,
      "든지": 3648,
      "듯한": 3649,
      "떠오": 3650,
      "똑똑": 3651,
      "라리": 3652,
      "래요": 3653,
      "려구": 3654,
      "르세요": 3655,
      "린다": 3656,
      "막혀": 3657,
      "맛집": 3658,
      "맞추": 3659,
      "맞았나봐요": 3660,
      "멋지": 3661,
      "명절": 3662,
      "모른": 3663,
      "몰래": 3664,
      "못해요": 3665,
      "무거": 3666,
      "반가": 3667,
      "받으": 3668,
      "받으면": 3669,
      "발렌": 3670,
      "밝혀": 3671,
      "밤에": 3672,
      "버릴": 3673,
      "베터": 3674,
      "별거": 3675,
      "보이네요": 3676,
      "보면서": 3677,
      "복이": 3678,
      "봄이": 3679,
      "부지": 3680,
      "빠를": 3681,
      "빼로": 3682,
      "빼빼로": 3683,
      "사가": 3684,
      "사업": 3685,
      "살기": 3686,
      "삶을": 3687,
      "상상": 3688,
      "생숭": 3689,
      "선을": 3690,
      "성장": 3691,
      "센스": 3692,
      "셨네요": 3693,
      "수업": 3694,
      "순수": 3695,
      "숭생숭": 3696,
      "쉬어도": 3697,
      "스테": 3698,
      "시군요": 3699,
      "신발": 3700,
      "심경": 3701,
      "싱숭생숭": 3702,
      "싸움": 3703,
      "써보세요": 3704,
      "썸은": 3705,
      "썸을": 3706,
      "않나봐요": 3707,
      "않을까": 3708,
      "알다가도": 3709,
      "애들": 3710,
      "양말": 3711,
      "양이": 3712,
      "어두": 3713,
      "업무": 3714,
      "었네요": 3715,
      "에휴": 3716,
      "여기": 3717,
      "여름": 3718,
      "염색": 3719,
      "와요": 3720,
      "외모": 3721,
      "외로운": 3722,
      "우리는": 3723,
      "운전": 3724,
      "유부": 3725,
      "은연": 3726,
      "이니": 3727,
      "이란": 3728,
      "이미": 3729,
      "인거": 3730,
      "인공": 3731,
      "인내": 3732,
      "일만": 3733,
      "일하는": 3734,
      "입을": 3735,
      "있지요": 3736,
      "있더라고요": 3737,
      "자면": 3738,
      "잡는": 3739,
      "잤어": 3740,
      "점이": 3741,
      "졌으면": 3742,
      "좋으면": 3743,
      "주려": 3744,
      "줄게요": 3745,
      "줬는데": 3746,
      "지진": 3747,
      "차라리": 3748,
      "참는": 3749,
      "코스": 3750,
      "콩깍": 3751,
      "타기": 3752,
      "통해": 3753,
      "투자": 3754,
      "패턴": 3755,
      "평가": 3756,
      "포근": 3757,
      "핑계": 3758,
      "하대": 3759,
      "하라고": 3760,
      "학기": 3761,
      "학생": 3762,
      "함을": 3763,
      "회원": 3764,
      "휴식": 3765,
      "흐르": 3766,
      "좋아했던": 3767,
      "사랑했": 3768,
      "마음대로": 3769,
      "이별도": 3770,
      "이별에": 3771,
      "하지는": 3772,
      "있을까요": 3773,
      "이제야": 3774,
      "아니니까요": 3775,
      "연애로": 3776,
      "연애에": 3777,
      "들어보세요": 3778,
      "정리하는": 3779,
      "결혼은": 3780,
      "결혼하면": 3781,
      "행복은": 3782,
      "행복을": 3783,
      "조금이라도": 3784,
      "다가가보세요": 3785,
      "고민임": 3786,
      "고백을": 3787,
      "짝사랑은": 3788,
      "헤어지면": 3789,
      "헤어지지": 3790,
      "인가봅니다": 3791,
      "그녀에게": 3792,
      "가능해요": 3793,
      "감정의": 3794,
      "여자친구에게": 3795,
      "알아차": 3796,
      "해주면": 3797,
      "상대에게": 3798,
      "있었으면": 3799,
      "표현을": 3800,
      "표현해보세요": 3801,
      "이었길": 3802,
      "이해가": 3803,
      "보내는": 3804,
      "생겼네": 3805,
      "이유는": 3806,
      "노력하는": 3807,
      "회사는": 3808,
      "전화가": 3809,
      "않아서": 3810,
      "재미가": 3811,
      "어려워요": 3812,
      "인생을": 3813,
      "스트레스가": 3814,
      "달라진": 3815,
      "위로봇": 3816,
      "답답해": 3817,
      "되었습니다": 3818,
      "기대세요": 3819,
      "다음부터": 3820,
      "현실을": 3821,
      "현실적인": 3822,
      "거리를": 3823,
      "소리가": 3824,
      "마지막으로": 3825,
      "보이지": 3826,
      "다르겠죠": 3827,
      "기다리면": 3828,
      "고생했어요": 3829,
      "가끔은": 3830,
      "내려놓": 3831,
      "복잡한": 3832,
      "복잡하겠어요": 3833,
      "직장에서": 3834,
      "배우는": 3835,
      "주변에": 3836,
      "익숙해지": 3837,
      "지났네요": 3838,
      "마련이에요": 3839,
      "마련이죠": 3840,
      "주말에": 3841,
      "자체가": 3842,
      "기간이": 3843,
      "바쁘거나": 3844,
      "어울리는": 3845,
      "헤아리는": 3846,
      "로맨틱한": 3847,
      "로맨틱하네요": 3848,
      "두근거리": 3849,
      "슬프네요": 3850,
      "타이밍이": 3851,
      "흔들리지": 3852,
      "부탁해보세요": 3853,
      "감사합니다": 3854,
      "본인의": 3855,
      "완벽한": 3856,
      "시어머니가": 3857,
      "현재를": 3858,
      "골라보세요": 3859,
      "오랫동안": 3860,
      "꽃다발": 3861,
      "4개월": 3862,
      "가만": 3863,
      "가짐": 3864,
      "가네요": 3865,
      "간단": 3866,
      "감고": 3867,
      "강아지": 3868,
      "갖지": 3869,
      "같다": 3870,
      "거는": 3871,
      "걸어": 3872,
      "걸요": 3873,
      "것같아": 3874,
      "겹살": 3875,
      "공개": 3876,
      "공평": 3877,
      "교통": 3878,
      "구멍": 3879,
      "그를": 3880,
      "그립": 3881,
      "기숙": 3882,
      "기준": 3883,
      "길게": 3884,
      "길러": 3885,
      "김에": 3886,
      "까먹었다": 3887,
      "깨요": 3888,
      "꼬박": 3889,
      "끝에": 3890,
      "남지": 3891,
      "남에게": 3892,
      "내게": 3893,
      "냈어": 3894,
      "너도": 3895,
      "노는": 3896,
      "눈치가": 3897,
      "느낄": 3898,
      "늘어요": 3899,
      "다닐": 3900,
      "단계": 3901,
      "담을": 3902,
      "대해서": 3903,
      "도가": 3904,
      "됐어요": 3905,
      "되겠지": 3906,
      "딸기": 3907,
      "때로": 3908,
      "뛰어": 3909,
      "라이": 3910,
      "럽게": 3911,
      "려나": 3912,
      "렸나봐요": 3913,
      "로또": 3914,
      "리네": 3915,
      "마셨": 3916,
      "만으로": 3917,
      "만드는": 3918,
      "많지": 3919,
      "말해주세요": 3920,
      "말이네요": 3921,
      "말해볼까": 3922,
      "맛나게": 3923,
      "망가": 3924,
      "매너": 3925,
      "먹으": 3926,
      "먹어보세요": 3927,
      "멀리": 3928,
      "메모": 3929,
      "모자": 3930,
      "무색": 3931,
      "문신": 3932,
      "뭐라": 3933,
      "뭐할까": 3934,
      "바다": 3935,
      "반응": 3936,
      "받으세요": 3937,
      "버리는": 3938,
      "보시": 3939,
      "봅시다": 3940,
      "봉사": 3941,
      "봐서": 3942,
      "불안": 3943,
      "불공평": 3944,
      "비난": 3945,
      "비참": 3946,
      "빠져": 3947,
      "빼고": 3948,
      "뻔했어": 3949,
      "사면": 3950,
      "사는게": 3951,
      "사야지": 3952,
      "사정이": 3953,
      "삼겹살": 3954,
      "새해": 3955,
      "성별": 3956,
      "성향": 3957,
      "세포": 3958,
      "센터": 3959,
      "소음": 3960,
      "수면": 3961,
      "순위": 3962,
      "스는": 3963,
      "시는": 3964,
      "시도": 3965,
      "신뢰": 3966,
      "신중": 3967,
      "신나는": 3968,
      "실내": 3969,
      "싸워": 3970,
      "썸인가": 3971,
      "쓰지": 3972,
      "악몽": 3973,
      "애교": 3974,
      "애를": 3975,
      "야할까": 3976,
      "어주세요": 3977,
      "었다": 3978,
      "에너": 3979,
      "여우": 3980,
      "였는데": 3981,
      "왤케": 3982,
      "외국": 3983,
      "요일": 3984,
      "우스": 3985,
      "웃을": 3986,
      "웬수": 3987,
      "위기": 3988,
      "위해서": 3989,
      "육아": 3990,
      "은퇴": 3991,
      "음식을": 3992,
      "의식": 3993,
      "의욕": 3994,
      "이스": 3995,
      "이직": 3996,
      "이세요": 3997,
      "인턴": 3998,
      "일년": 3999,
      "읽어보세요": 4000,
      "입어": 4001,
      "있기": 4002,
      "있나봅니다": 4003,
      "자괴": 4004,
      "잡아": 4005,
      "적금": 4006,
      "점에서": 4007,
      "정류": 4008,
      "정보": 4009,
      "정을": 4010,
      "좋았는데": 4011,
      "주기": 4012,
      "줘보세요": 4013,
      "지갑": 4014,
      "착한": 4015,
      "참견": 4016,
      "찾는": 4017,
      "찾기를": 4018,
      "처리": 4019,
      "천재": 4020,
      "청해보세요": 4021,
      "체육": 4022,
      "쳐다": 4023,
      "쳤어": 4024,
      "충격": 4025,
      "취해보세요": 4026,
      "컨디션": 4027,
      "크림": 4028,
      "탈출": 4029,
      "통수": 4030,
      "특별": 4031,
      "표시": 4032,
      "풀어": 4033,
      "하든": 4034,
      "하겠지": 4035,
      "한숨": 4036,
      "한다는": 4037,
      "해외": 4038,
      "해달라고": 4039,
      "했네요": 4040,
      "했지만": 4041,
      "했나봅니다": 4042,
      "허무": 4043,
      "헛헛": 4044,
      "활동": 4045,
      "흐르고": 4046,
      "사람인가봐요": 4047,
      "좋아하시": 4048,
      "좋아하나봐요": 4049,
      "사랑과": 4050,
      "사랑도": 4051,
      "사랑했나봐요": 4052,
      "생각했는데": 4053,
      "생각했나봐요": 4054,
      "같아서": 4055,
      "좋아하는거": 4056,
      "여자와": 4057,
      "남자한테": 4058,
      "만나도": 4059,
      "오늘이": 4060,
      "오늘따라": 4061,
      "자신감": 4062,
      "에게나": 4063,
      "아니죠": 4064,
      "아니지만": 4065,
      "싶다고": 4066,
      "모르게": 4067,
      "없어도": 4068,
      "들어와": 4069,
      "혼자도": 4070,
      "결혼할": 4071,
      "결혼해도": 4072,
      "행복해지": 4073,
      "사랑이네요": 4074,
      "물어보는게": 4075,
      "고백하면": 4076,
      "짝녀에게": 4077,
      "그럴까": 4078,
      "후회는": 4079,
      "받아보세요": 4080,
      "헤어지자": 4081,
      "여행도": 4082,
      "공부해서": 4083,
      "하루도": 4084,
      "여자친구한테": 4085,
      "걱정이": 4086,
      "싫어하는": 4087,
      "알아보고": 4088,
      "관심사를": 4089,
      "데이트를": 4090,
      "기억이": 4091,
      "머리랑": 4092,
      "어떨까": 4093,
      "나만의": 4094,
      "누구든": 4095,
      "보내주세요": 4096,
      "생겼으면": 4097,
      "궁금해요": 4098,
      "많아서": 4099,
      "어디까지": 4100,
      "아프지": 4101,
      "노력하겠습니다": 4102,
      "회사와": 4103,
      "그러고": 4104,
      "잘못된": 4105,
      "잘못인": 4106,
      "느낌이야": 4107,
      "사이에": 4108,
      "만들고": 4109,
      "답답한": 4110,
      "습관이네요": 4111,
      "챙겨드세요": 4112,
      "현실의": 4113,
      "세상은": 4114,
      "세상에서": 4115,
      "그렇다면": 4116,
      "의미부여": 4117,
      "추천해요": 4118,
      "아침이": 4119,
      "안되네": 4120,
      "영화관": 4121,
      "일어났": 4122,
      "보이는": 4123,
      "그리운": 4124,
      "다르겠지요": 4125,
      "사람들은": 4126,
      "모든걸": 4127,
      "성공할": 4128,
      "기다리지": 4129,
      "기다리는게": 4130,
      "하시군요": 4131,
      "생활이": 4132,
      "관리하세요": 4133,
      "실수를": 4134,
      "가족이": 4135,
      "끝났네": 4136,
      "끝났어": 4137,
      "따뜻할": 4138,
      "아이돌": 4139,
      "놀러가고": 4140,
      "시원하게": 4141,
      "우울해": 4142,
      "나아졌": 4143,
      "나아질": 4144,
      "버렸네": 4145,
      "번호를": 4146,
      "여유가": 4147,
      "끝나고": 4148,
      "부족한": 4149,
      "방학이": 4150,
      "소식이네요": 4151,
      "더라구": 4152,
      "마셔야지": 4153,
      "하늘을": 4154,
      "기회를": 4155,
      "종교가": 4156,
      "2주가": 4157,
      "이번에는": 4158,
      "생각만해도": 4159,
      "거기까지인가봐요": 4160,
      "두달이": 4161,
      "불편해": 4162,
      "생기면": 4163,
      "집안일": 4164,
      "나타날": 4165,
      "잠수이별": 4166,
      "그럼요": 4167,
      "느끼는": 4168,
      "우연히": 4169,
      "괜찮아졌길": 4170,
      "가벼운": 4171,
      "기념일": 4172,
      "목소리를": 4173,
      "보일러": 4174,
      "이루어": 4175,
      "미세먼지": 4176,
      "긍정적인": 4177,
      "나쁘지": 4178,
      "아까워": 4179,
      "유지하는": 4180,
      "단단히": 4181,
      "소화제": 4182,
      "달콤한": 4183,
      "청첩장": 4184,
      "아무렇지도": 4185,
      "발렌타": 4186,
      "회원정보": 4187,
      "기숙사": 4188,
      "0일": 4189,
      "가길": 4190,
      "가려": 4191,
      "가는게": 4192,
      "간대": 4193,
      "간사": 4194,
      "갈거예요": 4195,
      "갔는데": 4196,
      "강렬": 4197,
      "같다고": 4198,
      "거였": 4199,
      "거요": 4200,
      "거라고": 4201,
      "건들": 4202,
      "건조": 4203,
      "걸까요": 4204,
      "검색": 4205,
      "것들이": 4206,
      "것처럼": 4207,
      "겨우": 4208,
      "겼는데": 4209,
      "고가": 4210,
      "고칠": 4211,
      "그저": 4212,
      "그사람": 4213,
      "그분이": 4214,
      "기력": 4215,
      "기한": 4216,
      "깜빡": 4217,
      "깨닫": 4218,
      "꿈은": 4219,
      "끝도": 4220,
      "난방": 4221,
      "남는": 4222,
      "남들이": 4223,
      "낭만": 4224,
      "내기": 4225,
      "냉정": 4226,
      "너는": 4227,
      "노트": 4228,
      "노후": 4229,
      "놀죠": 4230,
      "다정": 4231,
      "단둘이": 4232,
      "답장이": 4233,
      "대리": 4234,
      "도는": 4235,
      "도를": 4236,
      "동료": 4237,
      "동성": 4238,
      "동호": 4239,
      "되겠어요": 4240,
      "될거예요": 4241,
      "뒤에서": 4242,
      "드름": 4243,
      "든든": 4244,
      "듯합니다": 4245,
      "라우": 4246,
      "란게": 4247,
      "랑이": 4248,
      "렸을": 4249,
      "리러": 4250,
      "마침": 4251,
      "막말": 4252,
      "많으면": 4253,
      "말로": 4254,
      "말하고": 4255,
      "말해도": 4256,
      "말라고": 4257,
      "말해줘": 4258,
      "맞을까": 4259,
      "맞을거예요": 4260,
      "매달": 4261,
      "매주": 4262,
      "먹지": 4263,
      "멋져요": 4264,
      "멍청": 4265,
      "못했": 4266,
      "무게": 4267,
      "무기력": 4268,
      "바이": 4269,
      "바라는": 4270,
      "발목": 4271,
      "버티": 4272,
      "변하는": 4273,
      "보게": 4274,
      "보단": 4275,
      "봐야": 4276,
      "부드": 4277,
      "부르": 4278,
      "비싼": 4279,
      "뿐이": 4280,
      "사겨": 4281,
      "사내": 4282,
      "살지": 4283,
      "살아요": 4284,
      "상의": 4285,
      "새출발": 4286,
      "생리": 4287,
      "서툴": 4288,
      "선배가": 4289,
      "섬유": 4290,
      "성숙": 4291,
      "성형": 4292,
      "세워": 4293,
      "셀카": 4294,
      "소모": 4295,
      "속은": 4296,
      "수건": 4297,
      "수다": 4298,
      "술만": 4299,
      "스피": 4300,
      "식으로": 4301,
      "싶었던": 4302,
      "썸에서": 4303,
      "아기": 4304,
      "아깝": 4305,
      "안할": 4306,
      "알기": 4307,
      "앞두고": 4308,
      "약을": 4309,
      "어이": 4310,
      "어필": 4311,
      "언니": 4312,
      "여드름": 4313,
      "였으면": 4314,
      "오니까": 4315,
      "올랐": 4316,
      "올해": 4317,
      "욕심": 4318,
      "우는": 4319,
      "유학": 4320,
      "유효": 4321,
      "을거라": 4322,
      "을텐데": 4323,
      "인다": 4324,
      "인인데": 4325,
      "인스타": 4326,
      "일차": 4327,
      "일들이": 4328,
      "일부터": 4329,
      "읽씹": 4330,
      "입고": 4331,
      "입이": 4332,
      "입지": 4333,
      "잇몸": 4334,
      "자도": 4335,
      "잡으세요": 4336,
      "장에": 4337,
      "적게": 4338,
      "적령": 4339,
      "적을": 4340,
      "적이야": 4341,
      "전혀": 4342,
      "정의": 4343,
      "정해보세요": 4344,
      "제게": 4345,
      "제주": 4346,
      "좋으시": 4347,
      "주의": 4348,
      "주저": 4349,
      "줄어": 4350,
      "중국어": 4351,
      "즐겁": 4352,
      "증거를": 4353,
      "지길": 4354,
      "지울": 4355,
      "지치": 4356,
      "지하": 4357,
      "차례": 4358,
      "참지": 4359,
      "참아보세요": 4360,
      "책을": 4361,
      "철벽": 4362,
      "첫사랑이": 4363,
      "초콜": 4364,
      "최근": 4365,
      "축복": 4366,
      "출퇴근": 4367,
      "침대": 4368,
      "침이": 4369,
      "칼로": 4370,
      "크닉": 4371,
      "키가": 4372,
      "타다": 4373,
      "타던": 4374,
      "타다가": 4375,
      "택배": 4376,
      "터가": 4377,
      "터놓고": 4378,
      "토닥": 4379,
      "트라우": 4380,
      "티를": 4381,
      "풀고": 4382,
      "풀렸": 4383,
      "풀어보세요": 4384,
      "피크닉": 4385,
      "하냐": 4386,
      "하며": 4387,
      "하실": 4388,
      "하자": 4389,
      "하다는": 4390,
      "하우스": 4391,
      "할지": 4392,
      "할거라": 4393,
      "할거야": 4394,
      "해가": 4395,
      "해낼": 4396,
      "해보고": 4397,
      "해줬으면": 4398,
      "향수": 4399,
      "호의": 4400,
      "회복": 4401,
      "후유증": 4402,
      "흥미": 4403,
      "사람인데": 4404,
      "좋아했는데": 4405,
      "사랑에는": 4406,
      "생각날": 4407,
      "생각해도": 4408,
      "생각할까": 4409,
      "생각해봐요": 4410,
      "친구도": 4411,
      "친구라고": 4412,
      "마음과": 4413,
      "마음만": 4414,
      "이별하고": 4415,
      "있을지": 4416,
      "여자는": 4417,
      "여자들이": 4418,
      "힘들지요": 4419,
      "사람이니까요": 4420,
      "사람이라면": 4421,
      "만나러": 4422,
      "해야하는": 4423,
      "이제라도": 4424,
      "좋을까요": 4425,
      "아니고": 4426,
      "아니네요": 4427,
      "연애하고": 4428,
      "필요하겠어요": 4429,
      "필요했을": 4430,
      "모르는게": 4431,
      "혼자만의": 4432,
      "일이죠": 4433,
      "정리하세요": 4434,
      "인데이": 4435,
      "정말로": 4436,
      "지금보다": 4437,
      "결혼적령": 4438,
      "하나라도": 4439,
      "준비하고": 4440,
      "아직은": 4441,
      "선물로": 4442,
      "물어봐요": 4443,
      "고백하는": 4444,
      "고백하고": 4445,
      "이야기해도": 4446,
      "그럴만": 4447,
      "하기로": 4448,
      "시작하세요": 4449,
      "그녀와": 4450,
      "가능해": 4451,
      "가능합니다": 4452,
      "여행은": 4453,
      "하루를": 4454,
      "하루에도": 4455,
      "신경을": 4456,
      "신경이": 4457,
      "다는건": 4458,
      "상대가": 4459,
      "힘들어하지": 4460,
      "기억을": 4461,
      "상처받": 4462,
      "상처받지": 4463,
      "있었는데": 4464,
      "있었나요": 4465,
      "언제까지": 4466,
      "표현하는": 4467,
      "오래된": 4468,
      "하다니": 4469,
      "누구에게나": 4470,
      "결정은": 4471,
      "내일도": 4472,
      "부담스러운": 4473,
      "미련은": 4474,
      "노력하면": 4475,
      "나한테만": 4476,
      "직접적이든": 4477,
      "그러게요": 4478,
      "않았나봐요": 4479,
      "그만하고": 4480,
      "처음에": 4481,
      "사이에서": 4482,
      "우리가": 4483,
      "축하합니다": 4484,
      "답답하네": 4485,
      "되었나봐요": 4486,
      "맞는지": 4487,
      "화장하는": 4488,
      "다음에": 4489,
      "보여주세요": 4490,
      "생각나고": 4491,
      "말씀하세요": 4492,
      "정신이": 4493,
      "그렇죠": 4494,
      "순간이": 4495,
      "만남이었길": 4496,
      "안되는데": 4497,
      "안되겠지": 4498,
      "헤어짐을": 4499,
      "지내는": 4500,
      "정도는": 4501,
      "정도로": 4502,
      "아닐까": 4503,
      "모든게": 4504,
      "성공하길": 4505,
      "잊혀질": 4506,
      "엄마한테": 4507,
      "연습이": 4508,
      "하시네요": 4509,
      "문제로": 4510,
      "떠나고": 4511,
      "떠나보세요": 4512,
      "무시하는": 4513,
      "도와주": 4514,
      "별로라고": 4515,
      "아픔을": 4516,
      "아픔의": 4517,
      "학교에서": 4518,
      "기다려주세요": 4519,
      "받아들이기": 4520,
      "환승은": 4521,
      "운명이": 4522,
      "해줄까": 4523,
      "느껴져": 4524,
      "차이가": 4525,
      "하려는": 4526,
      "하려면": 4527,
      "자존심": 4528,
      "카페에서": 4529,
      "자체로": 4530,
      "태어났": 4531,
      "상담을": 4532,
      "어렵네": 4533,
      "아름답": 4534,
      "바라지": 4535,
      "취미생활": 4536,
      "당연하죠": 4537,
      "거기까지였나봐요": 4538,
      "헤아리지": 4539,
      "키우고": 4540,
      "고마워": 4541,
      "힘내지": 4542,
      "경험이": 4543,
      "버텨보세요": 4544,
      "그랬나봐요": 4545,
      "계획을": 4546,
      "속상해": 4547,
      "없애는": 4548,
      "비교하지": 4549,
      "아빠가": 4550,
      "연락처를": 4551,
      "미친듯이": 4552,
      "차가워": 4553,
      "말투가": 4554,
      "사회생활": 4555,
      "결정이었을텐데": 4556,
      "자세히": 4557,
      "달달한": 4558,
      "기분전환을": 4559,
      "30분": 4560,
      "간접적이든": 4561,
      "억지로라도": 4562,
      "모른척": 4563,
      "밝혀보세요": 4564,
      "빠를수록": 4565,
      "위로봇입니다": 4566,
      "다음부터는": 4567,
      "가만히": 4568,
      "봉사활동": 4569,
      "정류장에서": 4570,
      "주기적으로": 4571,
      "발렌타인데이": 4572,
      "노트북": 4573,
      "동료가": 4574,
      "동호회": 4575,
      "마침표": 4576,
      "제주도": 4577,
      "지하철": 4578,
      "초콜릿": 4579,
      "트라우마": 4580,
      "후유증이": 4581,
      "1주": 4582,
      "3일째": 4583,
      "가게": 4584,
      "가늠": 4585,
      "가득": 4586,
      "가을": 4587,
      "가사가": 4588,
      "간질": 4589,
      "갈때": 4590,
      "감수": 4591,
      "감은": 4592,
      "감히": 4593,
      "갔네": 4594,
      "강습": 4595,
      "거둘": 4596,
      "거에": 4597,
      "거겠지": 4598,
      "건가요": 4599,
      "걸려": 4600,
      "걸음": 4601,
      "것들": 4602,
      "겠음": 4603,
      "겠는데": 4604,
      "겨워": 4605,
      "고고": 4606,
      "고기": 4607,
      "곰곰": 4608,
      "공감": 4609,
      "공원": 4610,
      "관련": 4611,
      "괴로워": 4612,
      "구경": 4613,
      "구해보세요": 4614,
      "구하세요": 4615,
      "군침이": 4616,
      "귀를": 4617,
      "그가": 4618,
      "금연": 4619,
      "기업": 4620,
      "기프": 4621,
      "길에서": 4622,
      "김치": 4623,
      "깊게": 4624,
      "꾸며": 4625,
      "끄러": 4626,
      "끝날": 4627,
      "끼리": 4628,
      "나누": 4629,
      "나빠": 4630,
      "나왔": 4631,
      "나는데": 4632,
      "나오세요": 4633,
      "낫겠지": 4634,
      "났네": 4635,
      "내면": 4636,
      "내일이": 4637,
      "너덜": 4638,
      "넘었네": 4639,
      "놀다": 4640,
      "놓지": 4641,
      "놓으세요": 4642,
      "누굴": 4643,
      "눈썹": 4644,
      "느낀": 4645,
      "늙어": 4646,
      "능력": 4647,
      "능력을": 4648,
      "늦어": 4649,
      "다되": 4650,
      "다툼": 4651,
      "단순": 4652,
      "단호": 4653,
      "달이": 4654,
      "대우": 4655,
      "대중": 4656,
      "대회": 4657,
      "대화가": 4658,
      "더러워": 4659,
      "덜할": 4660,
      "도네요": 4661,
      "도대체": 4662,
      "동감": 4663,
      "두절": 4664,
      "득템": 4665,
      "듣기": 4666,
      "듣는데": 4667,
      "들리": 4668,
      "들면": 4669,
      "들여보세요": 4670,
      "때려": 4671,
      "떠세요": 4672,
      "떠보는": 4673,
      "뜻대로": 4674,
      "라서": 4675,
      "락가락": 4676,
      "런하시네요": 4677,
      "로봇": 4678,
      "막차": 4679,
      "막힌": 4680,
      "많네": 4681,
      "많다": 4682,
      "말한": 4683,
      "말해봐요": 4684,
      "맛도": 4685,
      "맛있을": 4686,
      "맛있어요": 4687,
      "망했어": 4688,
      "맞지": 4689,
      "맞춤": 4690,
      "매번": 4691,
      "머리는": 4692,
      "먹은": 4693,
      "먹었는데": 4694,
      "며칠": 4695,
      "면증": 4696,
      "모임": 4697,
      "모아서": 4698,
      "못하면": 4699,
      "못했던": 4700,
      "못했나봐요": 4701,
      "무릎": 4702,
      "무작": 4703,
      "물이": 4704,
      "미칠": 4705,
      "미팅": 4706,
      "바늘": 4707,
      "바닥": 4708,
      "바디": 4709,
      "바지": 4710,
      "바퀴": 4711,
      "반에": 4712,
      "발이": 4713,
      "버는": 4714,
      "버린": 4715,
      "버림": 4716,
      "법을": 4717,
      "벤트": 4718,
      "변해": 4719,
      "변하지": 4720,
      "보네": 4721,
      "보름": 4722,
      "보며": 4723,
      "보자고": 4724,
      "봐야지": 4725,
      "부부": 4726,
      "불타": 4727,
      "불안해": 4728,
      "불면증": 4729,
      "붙여보세요": 4730,
      "비행": 4731,
      "빌려보세요": 4732,
      "빠른": 4733,
      "뽑기": 4734,
      "사보세요": 4735,
      "살면": 4736,
      "살았": 4737,
      "살면서": 4738,
      "삶의": 4739,
      "새학기": 4740,
      "서류": 4741,
      "선배": 4742,
      "설계": 4743,
      "설명": 4744,
      "성덕": 4745,
      "성적": 4746,
      "세우": 4747,
      "셔요": 4748,
      "셨군요": 4749,
      "소액": 4750,
      "소유": 4751,
      "소주": 4752,
      "소심해": 4753,
      "수를": 4754,
      "수염": 4755,
      "수영": 4756,
      "수증": 4757,
      "수학": 4758,
      "술먹고": 4759,
      "쉽진": 4760,
      "슈퍼": 4761,
      "스터": 4762,
      "스팸": 4763,
      "스크림": 4764,
      "슬쩍": 4765,
      "슬픔": 4766,
      "실례": 4767,
      "싫다고": 4768,
      "심어": 4769,
      "심으로": 4770,
      "심한가봐요": 4771,
      "심하겠네요": 4772,
      "쌩얼": 4773,
      "썸만": 4774,
      "썸일": 4775,
      "썼어": 4776,
      "씻고": 4777,
      "아님": 4778,
      "아련": 4779,
      "아쉬": 4780,
      "아쉽": 4781,
      "아주": 4782,
      "안에": 4783,
      "안주": 4784,
      "않겠어요": 4785,
      "않는게": 4786,
      "않지만": 4787,
      "알뜰": 4788,
      "알았어": 4789,
      "애석": 4790,
      "애틋": 4791,
      "야해요": 4792,
      "야겠지": 4793,
      "야하는데": 4794,
      "양해": 4795,
      "얘기를": 4796,
      "어둠": 4797,
      "어리": 4798,
      "어젯": 4799,
      "없고": 4800,
      "없겠지": 4801,
      "없는게": 4802,
      "었길": 4803,
      "었겠네요": 4804,
      "었습니다": 4805,
      "었나봐": 4806,
      "였던": 4807,
      "였을": 4808,
      "영상": 4809,
      "영수증": 4810,
      "예전": 4811,
      "오길": 4812,
      "오르": 4813,
      "오토": 4814,
      "오히": 4815,
      "오락가락": 4816,
      "올거예요": 4817,
      "옷이": 4818,
      "왕따": 4819,
      "요금": 4820,
      "요리": 4821,
      "우린": 4822,
      "우니까": 4823,
      "웃어": 4824,
      "웃어보세요": 4825,
      "음식": 4826,
      "의견": 4827,
      "의사": 4828,
      "의외로": 4829,
      "이뻐": 4830,
      "이쁜": 4831,
      "이크": 4832,
      "이겠죠": 4833,
      "이벤트": 4834,
      "인건가": 4835,
      "일단": 4836,
      "잃어": 4837,
      "자가": 4838,
      "자를": 4839,
      "자요": 4840,
      "자취": 4841,
      "잖아": 4842,
      "잘라": 4843,
      "잘해주는": 4844,
      "잠재": 4845,
      "적이에요": 4846,
      "적이죠": 4847,
      "전과": 4848,
      "전세": 4849,
      "전역": 4850,
      "절한": 4851,
      "점은": 4852,
      "접어두": 4853,
      "졌는데": 4854,
      "조용": 4855,
      "조카": 4856,
      "좋게": 4857,
      "좋고": 4858,
      "좋습니다": 4859,
      "주름": 4860,
      "주차": 4861,
      "주택": 4862,
      "줄여보세요": 4863,
      "중2": 4864,
      "중고": 4865,
      "증오": 4866,
      "지긋": 4867,
      "지냈": 4868,
      "지옥": 4869,
      "지죠": 4870,
      "지키": 4871,
      "지세요": 4872,
      "지말고": 4873,
      "지르고": 4874,
      "지겨워": 4875,
      "진행": 4876,
      "질러": 4877,
      "질방": 4878,
      "짜장면": 4879,
      "짧지": 4880,
      "찌질": 4881,
      "찜질방": 4882,
      "차갑": 4883,
      "창업": 4884,
      "책임": 4885,
      "첫인상": 4886,
      "쳐보세요": 4887,
      "초기": 4888,
      "최대한": 4889,
      "추석": 4890,
      "추운": 4891,
      "치맥": 4892,
      "치열": 4893,
      "치워": 4894,
      "치유": 4895,
      "케이스": 4896,
      "코가": 4897,
      "키워": 4898,
      "탈퇴": 4899,
      "테리": 4900,
      "통화": 4901,
      "트업": 4902,
      "트콘": 4903,
      "티가": 4904,
      "파먹기": 4905,
      "평온": 4906,
      "푸는": 4907,
      "피자": 4908,
      "필름": 4909,
      "하더니": 4910,
      "학점": 4911,
      "한강": 4912,
      "합격": 4913,
      "해준": 4914,
      "해진": 4915,
      "해하지": 4916,
      "해봐도": 4917,
      "했길": 4918,
      "허리": 4919,
      "형이": 4920,
      "형편": 4921,
      "혼란": 4922,
      "혼술": 4923,
      "화나": 4924,
      "화이트": 4925,
      "효도": 4926,
      "휴식을": 4927,
      "흔적": 4928,
      "희생": 4929,
      "힘껏": 4930,
      "사람만": 4931,
      "좋아질": 4932,
      "좋아하지": 4933,
      "사랑하기": 4934,
      "사랑받고": 4935,
      "마음에서": 4936,
      "이별했습니다": 4937,
      "연락해서": 4938,
      "하지요": 4939,
      "힘들고": 4940,
      "힘들거예요": 4941,
      "힘들지도": 4942,
      "시간표": 4943,
      "사람이다": 4944,
      "만나길": 4945,
      "만나는데": 4946,
      "오늘부터": 4947,
      "해야돼": 4948,
      "자신과": 4949,
      "괜찮다면": 4950,
      "괜찮지만": 4951,
      "아니랍니다": 4952,
      "아니라는": 4953,
      "연애의": 4954,
      "할까봐": 4955,
      "마음이라도": 4956,
      "싶다는": 4957,
      "필요한가봐요": 4958,
      "시간이겠네요": 4959,
      "들어가": 4960,
      "들어도": 4961,
      "들어서": 4962,
      "있어야": 4963,
      "보고싶": 4964,
      "보고싶네": 4965,
      "혼자인": 4966,
      "당신에게": 4967,
      "정리해보세요": 4968,
      "하나봐": 4969,
      "하나봅니다": 4970,
      "중요할": 4971,
      "행복할까": 4972,
      "행복하길": 4973,
      "다가가는": 4974,
      "준비하세요": 4975,
      "고민하게": 4976,
      "찾아가": 4977,
      "힘든데": 4978,
      "물어보고": 4979,
      "이야기해": 4980,
      "그럴지도": 4981,
      "서로가": 4982,
      "받아보는": 4983,
      "사귀면": 4984,
      "사귀어도": 4985,
      "시작해도": 4986,
      "헤어지세요": 4987,
      "헤어지는게": 4988,
      "아닌가봐요": 4989,
      "가능할까": 4990,
      "감정은": 4991,
      "많은가봐요": 4992,
      "여행이": 4993,
      "공부하기": 4994,
      "하루가": 4995,
      "하루에": 4996,
      "하루종일": 4997,
      "기분은": 4998,
      "힘드신가봐요": 4999,
      "걱정은": 5000,
      "걱정되겠네요": 5001,
      "싫어하지": 5002,
      "해주지": 5003,
      "데이트가": 5004,
      "남자친구한테": 5005,
      "상처는": 5006,
      "스러울": 5007,
      "자기도": 5008,
      "언제든": 5009,
      "돌아가고": 5010,
      "않을거예요": 5011,
      "누구도": 5012,
      "이해할": 5013,
      "이해해": 5014,
      "생겼어요": 5015,
      "결정할": 5016,
      "궁금할": 5017,
      "운동으로": 5018,
      "어디로": 5019,
      "아프고": 5020,
      "노력하고": 5021,
      "지나간": 5022,
      "회사에": 5023,
      "회사에는": 5024,
      "전화하는": 5025,
      "그러는": 5026,
      "노래를": 5027,
      "아파트": 5028,
      "재미있어요": 5029,
      "소개시켜": 5030,
      "신경쓰는": 5031,
      "처음에는": 5032,
      "처음부터": 5033,
      "사이인데": 5034,
      "만들려고": 5035,
      "되었길": 5036,
      "추억은": 5037,
      "추억으로": 5038,
      "기대가": 5039,
      "매일매일": 5040,
      "세상에는": 5041,
      "건강이": 5042,
      "의미가": 5043,
      "의미를": 5044,
      "의미있는": 5045,
      "사랑한다는": 5046,
      "만남과": 5047,
      "만남이": 5048,
      "1년이": 5049,
      "추천합니다": 5050,
      "추천해줘": 5051,
      "다니는": 5052,
      "일어날": 5053,
      "상대방도": 5054,
      "보이스피": 5055,
      "재회를": 5056,
      "커피향": 5057,
      "적이고": 5058,
      "나가기": 5059,
      "얼마든지": 5060,
      "진심이": 5061,
      "성공을": 5062,
      "스타일이": 5063,
      "스타트업": 5064,
      "연습해보세요": 5065,
      "인정받고": 5066,
      "이별이란": 5067,
      "되어가네": 5068,
      "문제는": 5069,
      "시켜보세요": 5070,
      "얼굴이": 5071,
      "좋아할거예요": 5072,
      "상관없어요": 5073,
      "실수할": 5074,
      "실수하지": 5075,
      "도와줘": 5076,
      "별로야": 5077,
      "아픔이": 5078,
      "피곤한가봐요": 5079,
      "행복해질": 5080,
      "가야죠": 5081,
      "가야겠죠": 5082,
      "끝났으면": 5083,
      "하셨어요": 5084,
      "마주치": 5085,
      "아이스크림": 5086,
      "안녕히": 5087,
      "안녕하세요": 5088,
      "배우면": 5089,
      "행동이": 5090,
      "익숙해질": 5091,
      "집착해": 5092,
      "집착하는": 5093,
      "나을지도": 5094,
      "도전해": 5095,
      "무엇을": 5096,
      "먹으면서": 5097,
      "잊는다는": 5098,
      "포기하는": 5099,
      "그분의": 5100,
      "응원해요": 5101,
      "소식이": 5102,
      "싸우면": 5103,
      "싸우면서": 5104,
      "전남친이": 5105,
      "월급이": 5106,
      "진정으로": 5107,
      "충전하세요": 5108,
      "비밀번호": 5109,
      "청소를": 5110,
      "경우가": 5111,
      "경우도": 5112,
      "바쁘면": 5113,
      "약속을": 5114,
      "한가봅니다": 5115,
      "사랑할수록": 5116,
      "당연히": 5117,
      "퇴근길": 5118,
      "10년": 5119,
      "드시고": 5120,
      "안경테": 5121,
      "예민한가봐요": 5122,
      "올려달라고": 5123,
      "차분하게": 5124,
      "학원을": 5125,
      "두근거": 5126,
      "쉬어야": 5127,
      "이기적인": 5128,
      "선생님이": 5129,
      "집중이": 5130,
      "집중하세요": 5131,
      "최선을": 5132,
      "프로필": 5133,
      "동생한테": 5134,
      "보냈어": 5135,
      "우선순위": 5136,
      "집안일을": 5137,
      "인상이": 5138,
      "좋아한다고": 5139,
      "고쳐쓰는": 5140,
      "귀엽게": 5141,
      "아는데도": 5142,
      "피부가": 5143,
      "견디고": 5144,
      "괴롭게": 5145,
      "이용해주세요": 5146,
      "거울을": 5147,
      "계절이": 5148,
      "미래에": 5149,
      "신고하세요": 5150,
      "영원한": 5151,
      "선택일거라": 5152,
      "놀아줘": 5153,
      "치과에": 5154,
      "휴가가": 5155,
      "공허함이": 5156,
      "권태기": 5157,
      "남사친이": 5158,
      "택시비": 5159,
      "안타깝네요": 5160,
      "심호흡해보세요": 5161,
      "다양하게": 5162,
      "두번째": 5163,
      "차근차근": 5164,
      "현금영수증": 5165,
      "지나갔길": 5166,
      "각자의": 5167,
      "셀프웨딩": 5168,
      "고맙다": 5169,
      "부딪혔": 5170,
      "애정표현": 5171,
      "혼자서도": 5172,
      "스트레칭을": 5173,
      "달라지는게": 5174,
      "드라이브": 5175,
      "벗어나세요": 5176,
      "깨끗하게": 5177,
      "멋지게": 5178,
      "무거워": 5179,
      "베터리": 5180,
      "부지런하시네요": 5181,
      "센스있는": 5182,
      "심경의": 5183,
      "두근거리겠어요": 5184,
      "가짐에": 5185,
      "교통을": 5186,
      "구멍이": 5187,
      "의욕이": 5188,
      "자괴감": 5189,
      "체육대회": 5190,
      "특별한": 5191,
      "부드럽게": 5192,
      "생리통": 5193,
      "주저리": 5194,
      "최근에": 5195,
      "칼로리": 5196,
      "흥미를": 5197,
      "곰곰히": 5198,
      "기프트콘": 5199,
      "꾸며보세요": 5200,
      "대중교통을": 5201,
      "무작정": 5202,
      "비행기": 5203,
      "스터디": 5204,
      "양해를": 5205,
      "오토바이": 5206,
      "오히려": 5207,
      "화이트데이": 5208,
      "보이스피싱": 5209,
      "1달": 5210,
      "20": 5211,
      "9년": 5212,
      "ᄏᄏ": 5213,
      "가라": 5214,
      "가볍": 5215,
      "가스": 5216,
      "가입": 5217,
      "가려고": 5218,
      "각이": 5219,
      "간식": 5220,
      "간소음": 5221,
      "갈수록": 5222,
      "감싸": 5223,
      "같았": 5224,
      "같으면": 5225,
      "갚아": 5226,
      "개념": 5227,
      "거르세요": 5228,
      "건가봐요": 5229,
      "걸린": 5230,
      "것에": 5231,
      "것입니다": 5232,
      "것들을": 5233,
      "겠다고": 5234,
      "격려": 5235,
      "경제": 5236,
      "고장": 5237,
      "고치고": 5238,
      "곳을": 5239,
      "공간": 5240,
      "괜한": 5241,
      "괴로": 5242,
      "구분": 5243,
      "구속": 5244,
      "그것": 5245,
      "긁었어": 5246,
      "금수": 5247,
      "기네": 5248,
      "기댈": 5249,
      "기름": 5250,
      "기술": 5251,
      "기지": 5252,
      "길은": 5253,
      "꺼내": 5254,
      "꼼꼼": 5255,
      "끄는": 5256,
      "끄러워": 5257,
      "끓여": 5258,
      "끝낼": 5259,
      "끝일": 5260,
      "끝인가": 5261,
      "나날": 5262,
      "나니": 5263,
      "나약": 5264,
      "나갔어": 5265,
      "낚시": 5266,
      "난히": 5267,
      "남들": 5268,
      "남았나봐요": 5269,
      "납니다": 5270,
      "내길": 5271,
      "내내": 5272,
      "냈어요": 5273,
      "냐구": 5274,
      "너한테": 5275,
      "넘었는데": 5276,
      "높아": 5277,
      "눈은": 5278,
      "눈에서": 5279,
      "느냐에": 5280,
      "능에": 5281,
      "늦는": 5282,
      "늦잠": 5283,
      "다운": 5284,
      "다짐": 5285,
      "단톡": 5286,
      "달래": 5287,
      "달콩": 5288,
      "담긴": 5289,
      "담해보세요": 5290,
      "답은": 5291,
      "당분": 5292,
      "대해보세요": 5293,
      "더욱": 5294,
      "독한": 5295,
      "돈은": 5296,
      "돌려": 5297,
      "동산": 5298,
      "됐습니다": 5299,
      "되게": 5300,
      "되돌": 5301,
      "두셨네요": 5302,
      "뒤숭": 5303,
      "뒤통수": 5304,
      "뒷담": 5305,
      "드가": 5306,
      "드레": 5307,
      "드려": 5308,
      "들까": 5309,
      "들려": 5310,
      "들으면": 5311,
      "등산": 5312,
      "등을": 5313,
      "따르": 5314,
      "때매": 5315,
      "때예요": 5316,
      "떠났": 5317,
      "떨쳐": 5318,
      "똑같아": 5319,
      "뜨려": 5320,
      "라는게": 5321,
      "랜선": 5322,
      "력은": 5323,
      "련만": 5324,
      "롭게": 5325,
      "릅니다": 5326,
      "리폼": 5327,
      "마디": 5328,
      "마자": 5329,
      "만드": 5330,
      "말걸": 5331,
      "말자": 5332,
      "말했어": 5333,
      "맘을": 5334,
      "망한": 5335,
      "망했다": 5336,
      "맞나": 5337,
      "맞아": 5338,
      "맞으면": 5339,
      "맞아요": 5340,
      "맡겨보세요": 5341,
      "매력이": 5342,
      "먹는데": 5343,
      "먹자고": 5344,
      "먼지": 5345,
      "먼지가": 5346,
      "면허": 5347,
      "명품": 5348,
      "몇일": 5349,
      "모를": 5350,
      "모쏠": 5351,
      "목이": 5352,
      "몸에": 5353,
      "몸무게": 5354,
      "못난": 5355,
      "못해서": 5356,
      "못하는게": 5357,
      "못참고": 5358,
      "무한": 5359,
      "문을": 5360,
      "문이": 5361,
      "물가": 5362,
      "뭐임": 5363,
      "뭐하는": 5364,
      "미용": 5365,
      "미화": 5366,
      "미끄러": 5367,
      "믿으세요": 5368,
      "믿음을": 5369,
      "바르고": 5370,
      "밖은": 5371,
      "밖에서": 5372,
      "반갑": 5373,
      "반년": 5374,
      "받기": 5375,
      "방문": 5376,
      "배달": 5377,
      "배울": 5378,
      "배정": 5379,
      "배터": 5380,
      "버시": 5381,
      "번씩": 5382,
      "번의": 5383,
      "벌고": 5384,
      "벽에": 5385,
      "변한": 5386,
      "보는데": 5387,
      "보니까": 5388,
      "보기만": 5389,
      "복전": 5390,
      "볼게요": 5391,
      "봄은": 5392,
      "봐보세요": 5393,
      "봤네": 5394,
      "부디": 5395,
      "분노": 5396,
      "불금": 5397,
      "비하": 5398,
      "빌어요": 5399,
      "빠졌": 5400,
      "빠지는": 5401,
      "빨래": 5402,
      "사냐": 5403,
      "사도": 5404,
      "사에": 5405,
      "사탕": 5406,
      "살찐": 5407,
      "살다보면": 5408,
      "상메": 5409,
      "상종": 5410,
      "상하지": 5411,
      "생인데": 5412,
      "생일이네": 5413,
      "서서": 5414,
      "서야": 5415,
      "서툰": 5416,
      "선에서": 5417,
      "설렜": 5418,
      "세월": 5419,
      "셨나": 5420,
      "셨겠어요": 5421,
      "속도를": 5422,
      "손에": 5423,
      "손톱": 5424,
      "손해": 5425,
      "수상": 5426,
      "수준": 5427,
      "술은": 5428,
      "술한잔": 5429,
      "시골": 5430,
      "시겠네요": 5431,
      "식단": 5432,
      "식에": 5433,
      "식은": 5434,
      "신기": 5435,
      "신이": 5436,
      "신가요": 5437,
      "심한": 5438,
      "심장이": 5439,
      "싸웠": 5440,
      "썸인": 5441,
      "쏟아": 5442,
      "쓸쓸": 5443,
      "씁쓸": 5444,
      "아마": 5445,
      "아팠": 5446,
      "안한": 5447,
      "안하지": 5448,
      "안좋은": 5449,
      "알지": 5450,
      "알콩": 5451,
      "았습니다": 5452,
      "애기": 5453,
      "애인": 5454,
      "액션": 5455,
      "야하나": 5456,
      "어깨": 5457,
      "어른": 5458,
      "어리게": 5459,
      "어렸을": 5460,
      "없겠지요": 5461,
      "었나요": 5462,
      "었으니까요": 5463,
      "연속": 5464,
      "연제": 5465,
      "연휴": 5466,
      "염탐": 5467,
      "옆에서": 5468,
      "예약": 5469,
      "오게": 5470,
      "오려": 5471,
      "오를": 5472,
      "오셨": 5473,
      "오죠": 5474,
      "오는데": 5475,
      "오라고": 5476,
      "올게": 5477,
      "옷을": 5478,
      "와닿": 5479,
      "와의": 5480,
      "왔나봐요": 5481,
      "우니": 5482,
      "웃겨": 5483,
      "웃음": 5484,
      "유행": 5485,
      "유난히": 5486,
      "유연제": 5487,
      "으며": 5488,
      "으련만": 5489,
      "은행": 5490,
      "을때": 5491,
      "의금": 5492,
      "이모": 5493,
      "이틀": 5494,
      "인걸까": 5495,
      "인테리": 5496,
      "일반": 5497,
      "일시": 5498,
      "일요": 5499,
      "입에": 5500,
      "입어도": 5501,
      "잊기": 5502,
      "잊으려고": 5503,
      "작아": 5504,
      "잔인": 5505,
      "잘해주세요": 5506,
      "잘하는게": 5507,
      "쟁취": 5508,
      "저분": 5509,
      "적어": 5510,
      "적은": 5511,
      "적이네요": 5512,
      "전기": 5513,
      "전해": 5514,
      "정적인": 5515,
      "제안": 5516,
      "졌네": 5517,
      "좋네요": 5518,
      "좋지요": 5519,
      "좋으련만": 5520,
      "주가": 5521,
      "주려고": 5522,
      "주면서": 5523,
      "주제를": 5524,
      "주식으로": 5525,
      "준다면": 5526,
      "중국": 5527,
      "중이야": 5528,
      "지낼": 5529,
      "지루": 5530,
      "지겠네요": 5531,
      "지저분": 5532,
      "질거": 5533,
      "질이": 5534,
      "질질": 5535,
      "짐을": 5536,
      "집니다": 5537,
      "짧게": 5538,
      "찍고": 5539,
      "찍어": 5540,
      "차리": 5541,
      "착잡": 5542,
      "참석": 5543,
      "참을": 5544,
      "추스": 5545,
      "축제": 5546,
      "축의금": 5547,
      "층간소음": 5548,
      "치기": 5549,
      "친해지": 5550,
      "친해질": 5551,
      "카락": 5552,
      "컴퓨": 5553,
      "코인": 5554,
      "큰일이네요": 5555,
      "키울": 5556,
      "털어": 5557,
      "테니까요": 5558,
      "특징": 5559,
      "틀린": 5560,
      "편의": 5561,
      "편하고": 5562,
      "편하겠죠": 5563,
      "포장": 5564,
      "표정": 5565,
      "프라이": 5566,
      "플라": 5567,
      "하진": 5568,
      "하신가봐요": 5569,
      "하더라고요": 5570,
      "하냐고": 5571,
      "하느냐에": 5572,
      "한계": 5573,
      "한창": 5574,
      "한켠": 5575,
      "한건가": 5576,
      "한순간": 5577,
      "할래": 5578,
      "할줄": 5579,
      "할수록": 5580,
      "함부로": 5581,
      "해보면": 5582,
      "해졌어": 5583,
      "해드릴게요": 5584,
      "했을까": 5585,
      "했나요": 5586,
      "행운": 5587,
      "행운을": 5588,
      "호칭": 5589,
      "활용": 5590,
      "휴가를": 5591,
      "흑역": 5592,
      "좋아서": 5593,
      "좋아했으면": 5594,
      "사랑해요": 5595,
      "생각으로": 5596,
      "생각해서": 5597,
      "친구네": 5598,
      "친구는": 5599,
      "친구와": 5600,
      "친구인데": 5601,
      "하고싶었던": 5602,
      "마음인가봐요": 5603,
      "너무너무": 5604,
      "연락할": 5605,
      "연락했는데": 5606,
      "연락해볼까": 5607,
      "연락두절": 5608,
      "하지도": 5609,
      "있을게요": 5610,
      "여자도": 5611,
      "남자도": 5612,
      "남자애한테": 5613,
      "만나요": 5614,
      "해야겠죠": 5615,
      "자신으로": 5616,
      "좋을거": 5617,
      "좋을지": 5618,
      "아니었을": 5619,
      "연애하는": 5620,
      "연애하면": 5621,
      "연애하는데": 5622,
      "모르겠네": 5623,
      "어떻게든": 5624,
      "어떻게해": 5625,
      "들어줄": 5626,
      "들어주세요": 5627,
      "들어왔어": 5628,
      "짝남에게": 5629,
      "정리될": 5630,
      "정리하고": 5631,
      "인데요": 5632,
      "결혼하는데": 5633,
      "기다렸": 5634,
      "기다림": 5635,
      "준비하는데": 5636,
      "보다는": 5637,
      "보는건": 5638,
      "찾아온": 5639,
      "힘든가봐요": 5640,
      "물어보면": 5641,
      "고백은": 5642,
      "고백할": 5643,
      "이라서": 5644,
      "짝사랑을": 5645,
      "하기가": 5646,
      "후회를": 5647,
      "후회해도": 5648,
      "후회하기": 5649,
      "받아서": 5650,
      "받아야": 5651,
      "사귀던": 5652,
      "시작하기": 5653,
      "시작이죠": 5654,
      "헤어지기": 5655,
      "헤어지는": 5656,
      "아닌거": 5657,
      "아닌가요": 5658,
      "가능하면": 5659,
      "가능하겠죠": 5660,
      "여행가": 5661,
      "공부할": 5662,
      "여자친구를": 5663,
      "여친이랑": 5664,
      "신경써": 5665,
      "걱정할": 5666,
      "걱정된다고": 5667,
      "싫어도": 5668,
      "해주는게": 5669,
      "해주면서": 5670,
      "남자친구를": 5671,
      "남자친구에게": 5672,
      "기억의": 5673,
      "기억에서": 5674,
      "남친이랑": 5675,
      "머리카락": 5676,
      "상처도": 5677,
      "있었을": 5678,
      "표현해": 5679,
      "카톡을": 5680,
      "카톡이": 5681,
      "카톡으로": 5682,
      "함께한": 5683,
      "함께할": 5684,
      "돌아올": 5685,
      "이었나봐요": 5686,
      "이었나봅니다": 5687,
      "누구랑": 5688,
      "보내지": 5689,
      "생겼네요": 5690,
      "어디든": 5691,
      "선택할": 5692,
      "선택이길": 5693,
      "한달하고": 5694,
      "미련도": 5695,
      "지나면": 5696,
      "때문일": 5697,
      "전화해보세요": 5698,
      "그러게": 5699,
      "인연은": 5700,
      "재미없어": 5701,
      "재미있게": 5702,
      "어려울": 5703,
      "인생이죠": 5704,
      "잘못을": 5705,
      "잘못이": 5706,
      "신경쓰여": 5707,
      "해지세요": 5708,
      "상황이네요": 5709,
      "해줘서": 5710,
      "사이로": 5711,
      "중요한데": 5712,
      "되었네": 5713,
      "되었을": 5714,
      "습관이": 5715,
      "추억에": 5716,
      "이어나가": 5717,
      "화장품": 5718,
      "기대를": 5719,
      "기대하지": 5720,
      "현실과": 5721,
      "세상이": 5722,
      "요즘은": 5723,
      "순간이네요": 5724,
      "순간이었을": 5725,
      "만남에": 5726,
      "먹어야겠다": 5727,
      "1년째": 5728,
      "언젠가는": 5729,
      "만들어서": 5730,
      "일어나는": 5731,
      "일어나서": 5732,
      "헤어짐이": 5733,
      "상대방에": 5734,
      "상대방에게": 5735,
      "보이네": 5736,
      "지내길": 5737,
      "귀찮은": 5738,
      "그리울": 5739,
      "그리움": 5740,
      "다르죠": 5741,
      "어제와": 5742,
      "재회는": 5743,
      "나가야": 5744,
      "나가볼까": 5745,
      "성공하고": 5746,
      "잊혀지지": 5747,
      "없을거예요": 5748,
      "인정하고": 5749,
      "인정해주세요": 5750,
      "되어야": 5751,
      "재밌는": 5752,
      "재밌다": 5753,
      "재밌어": 5754,
      "필요한게": 5755,
      "후폭풍은": 5756,
      "관리하는": 5757,
      "짜증날": 5758,
      "아픔은": 5759,
      "게임을": 5760,
      "가야돼": 5761,
      "하셨군요": 5762,
      "마주치는": 5763,
      "마주쳐보세요": 5764,
      "두려움을": 5765,
      "운명적인": 5766,
      "주변에서": 5767,
      "힘들었죠": 5768,
      "도전하는": 5769,
      "차이는": 5770,
      "이겨내세요": 5771,
      "자존감": 5772,
      "자존감을": 5773,
      "거짓말이": 5774,
      "연인은": 5775,
      "연인으로": 5776,
      "한다는데": 5777,
      "좋아해줬으면": 5778,
      "이상형은": 5779,
      "이상형이": 5780,
      "싸우는": 5781,
      "대화로": 5782,
      "대화하는": 5783,
      "마셔도": 5784,
      "버려야지": 5785,
      "어렵죠": 5786,
      "맞춰보세요": 5787,
      "미치겠어": 5788,
      "미치겠습니다": 5789,
      "미치겠네": 5790,
      "즐기면서": 5791,
      "받아들일": 5792,
      "당연한": 5793,
      "퇴근하고": 5794,
      "드시면": 5795,
      "미워하지": 5796,
      "예민한": 5797,
      "두려워하지": 5798,
      "그대로의": 5799,
      "기본이": 5800,
      "서운해": 5801,
      "슬프게": 5802,
      "어쩔수": 5803,
      "부담스러워하지": 5804,
      "끝내고": 5805,
      "당황했겠어요": 5806,
      "사과하세요": 5807,
      "적응해야": 5808,
      "좋았던": 5809,
      "좋았으면": 5810,
      "지우고": 5811,
      "고마운": 5812,
      "놀이동산": 5813,
      "삭제하세요": 5814,
      "오빠가": 5815,
      "피해를": 5816,
      "버텨요": 5817,
      "좋아한다는": 5818,
      "잊혀지기도": 5819,
      "아름다워요": 5820,
      "바꿔보세요": 5821,
      "바빠도": 5822,
      "바빠서": 5823,
      "점심시간": 5824,
      "조절을": 5825,
      "존재를": 5826,
      "과정이에요": 5827,
      "바뀌게": 5828,
      "배고프": 5829,
      "애매하네요": 5830,
      "이름이": 5831,
      "좋을텐데요": 5832,
      "가까운": 5833,
      "거절의": 5834,
      "사라질": 5835,
      "상사가": 5836,
      "슬퍼하고": 5837,
      "신혼여행": 5838,
      "쓰레기야": 5839,
      "소문이": 5840,
      "있으니까": 5841,
      "있으신가봐요": 5842,
      "차별해": 5843,
      "희망이": 5844,
      "미세먼지가": 5845,
      "권태기가": 5846,
      "선톡을": 5847,
      "시계는": 5848,
      "여사친이": 5849,
      "정확하게": 5850,
      "평소에": 5851,
      "해보려고": 5852,
      "심호흡을": 5853,
      "생겨서": 5854,
      "가치관이": 5855,
      "sns를": 5856,
      "막히는": 5857,
      "바꿀까": 5858,
      "소원을": 5859,
      "...": 5860,
      "걸리겠지만": 5861,
      "마실까": 5862,
      "물리적": 5863,
      "필요하다면요": 5864,
      "기원합니다": 5865,
      "낭비하지": 5866,
      "떠오르는": 5867,
      "맞추세요": 5868,
      "콩깍지가": 5869,
      "달라진게": 5870,
      "반응이": 5871,
      "보시면": 5872,
      "비난하지": 5873,
      "신중하게": 5874,
      "외국인인데": 5875,
      "한숨만": 5876,
      "나아졌길": 5877,
      "강렬한": 5878,
      "사겨도": 5879,
      "서툴러": 5880,
      "섬유유연제": 5881,
      "소모가": 5882,
      "어필해보세요": 5883,
      "줄어들": 5884,
      "막힌다": 5885,
      "서류에서": 5886,
      "잃어버렸어": 5887,
      "차갑게": 5888,
      "금수저": 5889,
      "당분간": 5890,
      "뒤숭숭": 5891,
      "드레스": 5892,
      "알콩달콩": 5893,
      "인테리어": 5894,
      "프라이버시": 5895,
      "12": 5896,
      "15": 5897,
      "2개월": 5898,
      "3초": 5899,
      "4일": 5900,
      "5일째": 5901,
      "AS": 5902,
      "B형": 5903,
      "as": 5904,
      "가운": 5905,
      "가자": 5906,
      "가기도": 5907,
      "가리세요": 5908,
      "가기로": 5909,
      "각질": 5910,
      "간직": 5911,
      "간다고": 5912,
      "간만에": 5913,
      "감동": 5914,
      "감출": 5915,
      "감으세요": 5916,
      "감각이": 5917,
      "갔는지": 5918,
      "강요": 5919,
      "강제": 5920,
      "갖게": 5921,
      "같음": 5922,
      "개시": 5923,
      "객관": 5924,
      "갠톡": 5925,
      "걔는": 5926,
      "거도": 5927,
      "거래": 5928,
      "걷고": 5929,
      "걷길": 5930,
      "걸음을": 5931,
      "것이죠": 5932,
      "겠대": 5933,
      "계기가": 5934,
      "고의": 5935,
      "고시원": 5936,
      "고양이": 5937,
      "골프": 5938,
      "곳까지": 5939,
      "곳이죠": 5940,
      "공유": 5941,
      "과거": 5942,
      "과연": 5943,
      "구가": 5944,
      "구두": 5945,
      "구를": 5946,
      "구별": 5947,
      "구워": 5948,
      "국도": 5949,
      "군인": 5950,
      "귀로": 5951,
      "그걸": 5952,
      "그땐": 5953,
      "그린": 5954,
      "그것도": 5955,
      "극히": 5956,
      "근데": 5957,
      "근무": 5958,
      "글쎄": 5959,
      "글자": 5960,
      "기에": 5961,
      "기르고": 5962,
      "기술이": 5963,
      "긴다": 5964,
      "길만": 5965,
      "길면": 5966,
      "길지": 5967,
      "까먹": 5968,
      "깎아": 5969,
      "꺼야": 5970,
      "꼰대": 5971,
      "꼼수를": 5972,
      "꽃길만": 5973,
      "꾸미": 5974,
      "꾹꾹": 5975,
      "끈을": 5976,
      "끊겼어": 5977,
      "끌어": 5978,
      "끝냈": 5979,
      "끝의": 5980,
      "나야": 5981,
      "나겠네요": 5982,
      "나오네": 5983,
      "나갈까": 5984,
      "나왔네": 5985,
      "나갈거예요": 5986,
      "난다면": 5987,
      "날짜": 5988,
      "날이네요": 5989,
      "남과": 5990,
      "남길": 5991,
      "남이에요": 5992,
      "남이니": 5993,
      "낫네": 5994,
      "났나봐": 5995,
      "낳을": 5996,
      "내릴": 5997,
      "내지": 5998,
      "냉면": 5999,
      "너가": 6000,
      "너의": 6001,
      "넓으": 6002,
      "넘은": 6003,
      "넘을": 6004,
      "넣을": 6005,
      "노려": 6006,
      "놀까": 6007,
      "농구": 6008,
      "농담": 6009,
      "높겠네요": 6010,
      "높이가": 6011,
      "놔둬": 6012,
      "누락": 6013,
      "눈높이가": 6014,
      "는구나": 6015,
      "늦었어요": 6016,
      "다듬": 6017,
      "다칠": 6018,
      "다하세요": 6019,
      "다는게": 6020,
      "다리가": 6021,
      "다릅니다": 6022,
      "단체": 6023,
      "단점을": 6024,
      "단맛도": 6025,
      "달라요": 6026,
      "달에는": 6027,
      "닮은": 6028,
      "답정": 6029,
      "당첨": 6030,
      "당한": 6031,
      "당하는": 6032,
      "당해요": 6033,
      "대는": 6034,
      "대답": 6035,
      "대상": 6036,
      "대수": 6037,
      "대충": 6038,
      "대피": 6039,
      "대기업": 6040,
      "덜어보세요": 6041,
      "데가": 6042,
      "데서": 6043,
      "도망": 6044,
      "독서": 6045,
      "독이": 6046,
      "돌면": 6047,
      "돌리는": 6048,
      "동력이": 6049,
      "동영상": 6050,
      "되짚": 6051,
      "되어요": 6052,
      "되네요": 6053,
      "되겠죠": 6054,
      "되려고": 6055,
      "되니까": 6056,
      "되시길": 6057,
      "되려면": 6058,
      "된다": 6059,
      "된다면": 6060,
      "두지": 6061,
      "두통": 6062,
      "두푼": 6063,
      "뒀나봐요": 6064,
      "뒤에": 6065,
      "뒷감당": 6066,
      "뒹굴": 6067,
      "드위": 6068,
      "드리는": 6069,
      "듣는": 6070,
      "들었나봐요": 6071,
      "들었겠네요": 6072,
      "따듯한": 6073,
      "땀을": 6074,
      "때요": 6075,
      "때의": 6076,
      "때죠": 6077,
      "때부터": 6078,
      "때마다": 6079,
      "떠날": 6080,
      "떨고": 6081,
      "떨린다": 6082,
      "또한": 6083,
      "똑같애": 6084,
      "뜨겁": 6085,
      "뜨리기": 6086,
      "띄는": 6087,
      "라네": 6088,
      "라니": 6089,
      "라이트": 6090,
      "랬다": 6091,
      "런지": 6092,
      "렀어": 6093,
      "레시": 6094,
      "력서": 6095,
      "력에": 6096,
      "렵니다": 6097,
      "로그": 6098,
      "롱디": 6099,
      "리드": 6100,
      "리죠": 6101,
      "리필": 6102,
      "리겠어요": 6103,
      "리적인": 6104,
      "린대로": 6105,
      "림을": 6106,
      "마른": 6107,
      "마중": 6108,
      "막막": 6109,
      "만해": 6110,
      "만화": 6111,
      "만지지": 6112,
      "많으시": 6113,
      "말해서": 6114,
      "말해주": 6115,
      "맘처럼": 6116,
      "맘같지": 6117,
      "맛있어": 6118,
      "맛있다": 6119,
      "망상": 6120,
      "망설": 6121,
      "망함": 6122,
      "맡기세요": 6123,
      "매가": 6124,
      "매력을": 6125,
      "맥이": 6126,
      "맷해보세요": 6127,
      "먹먹": 6128,
      "먹거나": 6129,
      "먹어도": 6130,
      "멈춰": 6131,
      "멋져": 6132,
      "메리": 6133,
      "면역": 6134,
      "명한": 6135,
      "명상을": 6136,
      "모으": 6137,
      "몰려": 6138,
      "몸에는": 6139,
      "못잊는": 6140,
      "무모": 6141,
      "무언": 6142,
      "무조건": 6143,
      "무의식": 6144,
      "문화": 6145,
      "뭐로": 6146,
      "뭐지": 6147,
      "뭐해": 6148,
      "뭐하면": 6149,
      "뭐하나": 6150,
      "뭘로": 6151,
      "미루": 6152,
      "믿고": 6153,
      "믿어": 6154,
      "믿지": 6155,
      "밀려": 6156,
      "밀어": 6157,
      "밀어보세요": 6158,
      "바구": 6159,
      "바쁠": 6160,
      "반장": 6161,
      "반한": 6162,
      "받네": 6163,
      "받으시": 6164,
      "받으면서": 6165,
      "발견": 6166,
      "발을": 6167,
      "밥을": 6168,
      "방금": 6169,
      "방에": 6170,
      "방향": 6171,
      "배신": 6172,
      "배울까": 6173,
      "백업": 6174,
      "버릇": 6175,
      "벅찰": 6176,
      "베트": 6177,
      "베프": 6178,
      "베풀고": 6179,
      "변신": 6180,
      "변해요": 6181,
      "병신": 6182,
      "보듬": 6183,
      "보란": 6184,
      "보신": 6185,
      "보자": 6186,
      "보려고": 6187,
      "보기로": 6188,
      "보답을": 6189,
      "봐주": 6190,
      "봐주세요": 6191,
      "부려": 6192,
      "부의": 6193,
      "부질": 6194,
      "분담해보세요": 6195,
      "불쑥": 6196,
      "불효": 6197,
      "브랜": 6198,
      "블록": 6199,
      "비용": 6200,
      "비워": 6201,
      "비세요": 6202,
      "비정상": 6203,
      "비정규직": 6204,
      "빈자리": 6205,
      "빌어": 6206,
      "빠지면": 6207,
      "뻑뻑": 6208,
      "뿌린대로": 6209,
      "사로": 6210,
      "사수": 6211,
      "사전": 6212,
      "사줘": 6213,
      "사춘": 6214,
      "사표": 6215,
      "사정을": 6216,
      "사생활이": 6217,
      "살려": 6218,
      "살쪄": 6219,
      "새가": 6220,
      "새신발": 6221,
      "샌드위": 6222,
      "생생": 6223,
      "서점": 6224,
      "서지": 6225,
      "선풍": 6226,
      "설득": 6227,
      "성이에요": 6228,
      "성적이": 6229,
      "세어": 6230,
      "셔야": 6231,
      "셨나요": 6232,
      "소가": 6233,
      "소름": 6234,
      "소화가": 6235,
      "소소한": 6236,
      "속박": 6237,
      "속으로": 6238,
      "손으로": 6239,
      "손가락": 6240,
      "수능": 6241,
      "술마시": 6242,
      "스릴": 6243,
      "승진": 6244,
      "시급": 6245,
      "시려": 6246,
      "시선을": 6247,
      "식물": 6248,
      "실천": 6249,
      "실패": 6250,
      "실행": 6251,
      "실거예요": 6252,
      "싫어요": 6253,
      "심남": 6254,
      "심이": 6255,
      "심하네": 6256,
      "심심해": 6257,
      "싶으면": 6258,
      "싸운": 6259,
      "싸웠어": 6260,
      "쌓여": 6261,
      "썸도": 6262,
      "썸타고": 6263,
      "쓰게": 6264,
      "쓰려고": 6265,
      "쓰면서": 6266,
      "쓰이는": 6267,
      "아리": 6268,
      "아물": 6269,
      "아부": 6270,
      "아울": 6271,
      "아쉬운": 6272,
      "안됐": 6273,
      "안될": 6274,
      "안부": 6275,
      "안이": 6276,
      "안하면": 6277,
      "안받아": 6278,
      "안보여": 6279,
      "안부를": 6280,
      "않겠네요": 6281,
      "않지요": 6282,
      "알까": 6283,
      "알겠어": 6284,
      "았네": 6285,
      "았으면": 6286,
      "애의": 6287,
      "애프": 6288,
      "액정": 6289,
      "야겠어": 6290,
      "양제": 6291,
      "어흥": 6292,
      "어떠세요": 6293,
      "언제가": 6294,
      "없지요": 6295,
      "없으니까요": 6296,
      "없답니다": 6297,
      "엇갈": 6298,
      "에만": 6299,
      "엠티": 6300,
      "여쭤": 6301,
      "역할": 6302,
      "연상": 6303,
      "열어": 6304,
      "열흘": 6305,
      "였나": 6306,
      "였나요": 6307,
      "영어": 6308,
      "영양제": 6309,
      "예능": 6310,
      "예비": 6311,
      "예감은": 6312,
      "오고": 6313,
      "오바": 6314,
      "오겠죠": 6315,
      "오디션": 6316,
      "옳은": 6317,
      "옷이요": 6318,
      "와도": 6319,
      "와인": 6320,
      "와플": 6321,
      "왔나봅니다": 6322,
      "왕이면": 6323,
      "왜이렇게": 6324,
      "왠지": 6325,
      "외출": 6326,
      "외국어": 6327,
      "욕해": 6328,
      "욕하고": 6329,
      "용량": 6330,
      "우정이": 6331,
      "운이": 6332,
      "울고": 6333,
      "웃는": 6334,
      "웃으면서": 6335,
      "원인": 6336,
      "원치": 6337,
      "원해보세요": 6338,
      "원한다면": 6339,
      "원동력이": 6340,
      "월세": 6341,
      "웠을": 6342,
      "웹툰": 6343,
      "으려": 6344,
      "으아": 6345,
      "으니까": 6346,
      "으려면": 6347,
      "음료": 6348,
      "의심해": 6349,
      "이것": 6350,
      "이겠네요": 6351,
      "이사를": 6352,
      "이력서": 6353,
      "이왕이면": 6354,
      "인줄": 6355,
      "인터": 6356,
      "인맥이": 6357,
      "일기": 6358,
      "일로": 6359,
      "일방": 6360,
      "일인지": 6361,
      "일하면서": 6362,
      "읽어": 6363,
      "임용": 6364,
      "입학": 6365,
      "입을까": 6366,
      "입으세요": 6367,
      "입냄새": 6368,
      "있니": 6369,
      "있대": 6370,
      "있던": 6371,
      "있겠다": 6372,
      "있거나": 6373,
      "있군요": 6374,
      "있으세요": 6375,
      "있답니다": 6376,
      "있냐고": 6377,
      "자랑": 6378,
      "자장": 6379,
      "자제": 6380,
      "자다가": 6381,
      "자야지": 6382,
      "자장면": 6383,
      "작동": 6384,
      "잘하면": 6385,
      "잘해야": 6386,
      "잘지내": 6387,
      "잘지내고": 6388,
      "잠은": 6389,
      "잡념": 6390,
      "잡히": 6391,
      "잡아보세요": 6392,
      "장갑": 6393,
      "장애": 6394,
      "장학": 6395,
      "저마다": 6396,
      "전학": 6397,
      "전하지": 6398,
      "전까지": 6399,
      "절친": 6400,
      "접는게": 6401,
      "접어야": 6402,
      "정장": 6403,
      "정정": 6404,
      "정해져": 6405,
      "져서": 6406,
      "졌어요": 6407,
      "조가": 6408,
      "졸린": 6409,
      "종료": 6410,
      "종지": 6411,
      "좋긴": 6412,
      "좋음": 6413,
      "좋대요": 6414,
      "좌절": 6415,
      "죄가": 6416,
      "주량": 6417,
      "주물": 6418,
      "주워": 6419,
      "주실거예요": 6420,
      "죽겠다": 6421,
      "죽어도": 6422,
      "줬더니": 6423,
      "즐겨": 6424,
      "즐기는": 6425,
      "증명": 6426,
      "지각": 6427,
      "지낸": 6428,
      "지속": 6429,
      "지압": 6430,
      "지친": 6431,
      "지네요": 6432,
      "지마세요": 6433,
      "지웠어": 6434,
      "지능에": 6435,
      "지극히": 6436,
      "직업": 6437,
      "직전": 6438,
      "질려": 6439,
      "질린": 6440,
      "질문": 6441,
      "짠하고": 6442,
      "짧죠": 6443,
      "째깍": 6444,
      "찍는": 6445,
      "찢어": 6446,
      "차곡": 6447,
      "차인": 6448,
      "차였는데": 6449,
      "참다": 6450,
      "참았어": 6451,
      "채워질": 6452,
      "챙기세요": 6453,
      "청결": 6454,
      "청약": 6455,
      "청춘": 6456,
      "체적으로": 6457,
      "초록": 6458,
      "총회": 6459,
      "촬영": 6460,
      "최신": 6461,
      "최저": 6462,
      "추가": 6463,
      "추적": 6464,
      "춥네": 6465,
      "취해서": 6466,
      "친절": 6467,
      "친척": 6468,
      "친해지는": 6469,
      "침묵": 6470,
      "커서": 6471,
      "컨트": 6472,
      "케익": 6473,
      "콜록": 6474,
      "킁킁": 6475,
      "타나": 6476,
      "타러": 6477,
      "타면": 6478,
      "타인": 6479,
      "탈모": 6480,
      "탔어": 6481,
      "태연": 6482,
      "터지": 6483,
      "테니": 6484,
      "텐대요": 6485,
      "톡이": 6486,
      "틀리는": 6487,
      "티콘": 6488,
      "파도": 6489,
      "파도가": 6490,
      "팍팍": 6491,
      "패션": 6492,
      "페메": 6493,
      "편안": 6494,
      "편으로": 6495,
      "편지도": 6496,
      "편안해": 6497,
      "포기가": 6498,
      "포맷해보세요": 6499,
      "폭식": 6500,
      "피로": 6501,
      "피하는": 6502,
      "필기": 6503,
      "하아": 6504,
      "학벌": 6505,
      "한건": 6506,
      "한약": 6507,
      "한푼": 6508,
      "한심해": 6509,
      "한답니다": 6510,
      "한바퀴": 6511,
      "한국도": 6512,
      "할수": 6513,
      "할지도": 6514,
      "할때는": 6515,
      "함에": 6516,
      "합리적인": 6517,
      "해로": 6518,
      "해드세요": 6519,
      "해줬어": 6520,
      "해봤는데": 6521,
      "했다면": 6522,
      "했다고": 6523,
      "향이": 6524,
      "허락": 6525,
      "허리가": 6526,
      "현타": 6527,
      "호랑이": 6528,
      "혼수": 6529,
      "확률": 6530,
      "환기": 6531,
      "황당": 6532,
      "회의": 6533,
      "훔쳐": 6534,
      "휴학": 6535,
      "흐른": 6536,
      "흐르는": 6537,
      "흘려보세요": 6538,
      "사람인": 6539,
      "사람친구": 6540,
      "사람하고": 6541,
      "좋아지는": 6542,
      "좋아지고": 6543,
      "사랑니": 6544,
      "사랑이에요": 6545,
      "사랑할까": 6546,
      "사랑인지": 6547,
      "사랑스러운": 6548,
      "사랑하니까": 6549,
      "생각도": 6550,
      "생각하게": 6551,
      "생각이네요": 6552,
      "생각들을": 6553,
      "친구라면": 6554,
      "친구들을": 6555,
      "하고싶은데": 6556,
      "너무나도": 6557,
      "이별하는": 6558,
      "연락도": 6559,
      "연락할까": 6560,
      "연락하는게": 6561,
      "연락왔어": 6562,
      "연락해봐요": 6563,
      "연락이라도": 6564,
      "연락해보는": 6565,
      "연락하라고": 6566,
      "하지말고": 6567,
      "여자들": 6568,
      "여자로": 6569,
      "여자에게": 6570,
      "남자에게": 6571,
      "남자입니다": 6572,
      "남자분들": 6573,
      "힘들까": 6574,
      "힘들겠죠": 6575,
      "힘들지만": 6576,
      "시간과": 6577,
      "시간인데": 6578,
      "시간내서": 6579,
      "좋은거": 6580,
      "사람이야": 6581,
      "싶어하는": 6582,
      "에서도": 6583,
      "있는걸까": 6584,
      "만나자": 6585,
      "만나자는": 6586,
      "오늘이에요": 6587,
      "해야겠네": 6588,
      "자신은": 6589,
      "이제서야": 6590,
      "괜찮길": 6591,
      "괜찮다": 6592,
      "괜찮겠지": 6593,
      "아니길": 6594,
      "아니네": 6595,
      "아니지": 6596,
      "연애세포": 6597,
      "마음이랑": 6598,
      "싶다면": 6599,
      "다른걸": 6600,
      "시간이네요": 6601,
      "없어졌어": 6602,
      "들어가서": 6603,
      "혼자를": 6604,
      "혼자해도": 6605,
      "당신만이": 6606,
      "들이대": 6607,
      "들이랑": 6608,
      "정리에": 6609,
      "정리해": 6610,
      "지금의": 6611,
      "지금부터": 6612,
      "결혼을": 6613,
      "결혼하고": 6614,
      "결혼해야": 6615,
      "결혼하기": 6616,
      "하나요": 6617,
      "하나죠": 6618,
      "기다리세요": 6619,
      "그런가": 6620,
      "그런지": 6621,
      "행복하세요": 6622,
      "다가가세요": 6623,
      "준비중": 6624,
      "준비할": 6625,
      "준비하느라": 6626,
      "준비하기는": 6627,
      "보다보면": 6628,
      "고민이죠": 6629,
      "고민하느라": 6630,
      "아직이라면": 6631,
      "사랑이죠": 6632,
      "사랑이라는": 6633,
      "선물하면": 6634,
      "선물이네요": 6635,
      "없는거": 6636,
      "없는지": 6637,
      "없는걸까": 6638,
      "찾아봐요": 6639,
      "찾아가는": 6640,
      "찾아오는": 6641,
      "힘든거": 6642,
      "방법도": 6643,
      "물어봐도": 6644,
      "고백하세요": 6645,
      "고백하는게": 6646,
      "이야기하는": 6647,
      "이야기하고": 6648,
      "짝녀를": 6649,
      "가는거": 6650,
      "후회만": 6651,
      "후회해": 6652,
      "후회하는": 6653,
      "후회할까": 6654,
      "사귀어": 6655,
      "시작할": 6656,
      "그녀도": 6657,
      "가능성": 6658,
      "가능한": 6659,
      "가능하죠": 6660,
      "가능한가": 6661,
      "가능하다고": 6662,
      "감정기": 6663,
      "많은가": 6664,
      "많은걸": 6665,
      "여행이네요": 6666,
      "공부하면": 6667,
      "공부하세요": 6668,
      "공부해야지": 6669,
      "하루는": 6670,
      "거라면": 6671,
      "힘드니까요": 6672,
      "힘드시겠어요": 6673,
      "여친에게": 6674,
      "이상적인": 6675,
      "다는걸": 6676,
      "걱정이야": 6677,
      "걱정하지마세요": 6678,
      "걱정되겠어요": 6679,
      "알아볼": 6680,
      "알아보는": 6681,
      "알아두세요": 6682,
      "관심사에": 6683,
      "기억에": 6684,
      "기억은": 6685,
      "기억해": 6686,
      "되는거": 6687,
      "있었어": 6688,
      "있었을지도": 6689,
      "표현하지": 6690,
      "표현해보는": 6691,
      "오래오래": 6692,
      "하다보니": 6693,
      "함께도": 6694,
      "함께하고": 6695,
      "돌아가": 6696,
      "이었어": 6697,
      "누구야": 6698,
      "이해를": 6699,
      "이해해보세요": 6700,
      "이해하고": 6701,
      "이해하기": 6702,
      "보내시길": 6703,
      "생겼을지도": 6704,
      "사랑하는지는": 6705,
      "결정했나봐요": 6706,
      "이유로": 6707,
      "따라가": 6708,
      "운동할": 6709,
      "운동해보세요": 6710,
      "운동하세요": 6711,
      "내일을": 6712,
      "선택이": 6713,
      "선택이었을": 6714,
      "아프게": 6715,
      "미련을": 6716,
      "직접적으로": 6717,
      "조심히": 6718,
      "노래가": 6719,
      "노래는": 6720,
      "않았길": 6721,
      "어떡함": 6722,
      "어떡하죠": 6723,
      "재미있어": 6724,
      "재미있나봐요": 6725,
      "쉽지가": 6726,
      "인생의": 6727,
      "인생에서": 6728,
      "잘못입니다": 6729,
      "괜찮아지고": 6730,
      "신경쓰고": 6731,
      "신경쓰면": 6732,
      "신경쓰이": 6733,
      "스트레스를": 6734,
      "스트레스야": 6735,
      "스트레스의": 6736,
      "해지길": 6737,
      "해지네": 6738,
      "그만둬": 6739,
      "달라지지": 6740,
      "달라져요": 6741,
      "처음이": 6742,
      "위로를": 6743,
      "위로해줄": 6744,
      "축하해주세요": 6745,
      "나이에": 6746,
      "나이테": 6747,
      "만났던": 6748,
      "만났든": 6749,
      "만들기": 6750,
      "만들었어요": 6751,
      "답답할": 6752,
      "답답해서": 6753,
      "되었는데": 6754,
      "습관처럼": 6755,
      "확실해지면": 6756,
      "결국엔": 6757,
      "이어질": 6758,
      "이어폰": 6759,
      "이어보고": 6760,
      "이어주는": 6761,
      "이어나가는": 6762,
      "챙겨주면": 6763,
      "챙겨드시": 6764,
      "화장이": 6765,
      "관계의": 6766,
      "잊어가는": 6767,
      "거리가": 6768,
      "말씀드려보세요": 6769,
      "정신없이": 6770,
      "정신건강에": 6771,
      "정신차리세요": 6772,
      "건강을": 6773,
      "건강하게": 6774,
      "그렇겠죠": 6775,
      "만남은": 6776,
      "만남이네요": 6777,
      "먹어야": 6778,
      "소리를": 6779,
      "나쁜거예요": 6780,
      "추천해": 6781,
      "확인하는": 6782,
      "확인해달라고": 6783,
      "다니면서": 6784,
      "아침부터": 6785,
      "마시지": 6786,
      "일어나면": 6787,
      "헤어짐은": 6788,
      "상대방의": 6789,
      "한번더": 6790,
      "한번만": 6791,
      "한번쯤": 6792,
      "다르게": 6793,
      "다르지": 6794,
      "안해먹고": 6795,
      "어느새": 6796,
      "커피가": 6797,
      "커피는": 6798,
      "부모님을": 6799,
      "떨어지는": 6800,
      "떨어뜨려": 6801,
      "바람난": 6802,
      "바람이라도": 6803,
      "나가면": 6804,
      "많았나봅니다": 6805,
      "살아가": 6806,
      "살아있음": 6807,
      "성공한": 6808,
      "성공적으로": 6809,
      "잊혀져": 6810,
      "잊혀질까": 6811,
      "기다리던": 6812,
      "핸드폰이": 6813,
      "모습도": 6814,
      "엄마랑": 6815,
      "엄마아빠": 6816,
      "모두에게": 6817,
      "문제죠": 6818,
      "문제네요": 6819,
      "시켜달라고": 6820,
      "예의일": 6821,
      "오는날": 6822,
      "가끔씩": 6823,
      "얼굴에": 6824,
      "예뻐질": 6825,
      "재밌을": 6826,
      "재밌겠어요": 6827,
      "재밌는거": 6828,
      "상관없지만": 6829,
      "소개팅하고": 6830,
      "소개팅으로": 6831,
      "떠나간": 6832,
      "무시해": 6833,
      "심해지는": 6834,
      "알바생": 6835,
      "도와달라고": 6836,
      "아픔도": 6837,
      "피곤했나봐요": 6838,
      "기다려도": 6839,
      "기다려야": 6840,
      "극복해보세요": 6841,
      "다녀도": 6842,
      "다녀왔어": 6843,
      "자리에": 6844,
      "행복해보여": 6845,
      "가족들": 6846,
      "가족한테": 6847,
      "가족들이랑": 6848,
      "끝났습니다": 6849,
      "만난다면": 6850,
      "붙잡는": 6851,
      "붙잡아": 6852,
      "하셨나봐요": 6853,
      "하셨겠어요": 6854,
      "끝이네": 6855,
      "따뜻해졌": 6856,
      "설레는": 6857,
      "외로움을": 6858,
      "두려운": 6859,
      "아는거": 6860,
      "아이디": 6861,
      "행동은": 6862,
      "놀러가세요": 6863,
      "익숙해져": 6864,
      "지났는데": 6865,
      "도전은": 6866,
      "즐거울": 6867,
      "후련하네": 6868,
      "후련하니": 6869,
      "거짓말을": 6870,
      "다행이네요": 6871,
      "연인과": 6872,
      "용기내": 6873,
      "자체만으로": 6874,
      "최고의": 6875,
      "헷갈리": 6876,
      "헷갈리네": 6877,
      "생각할게요": 6878,
      "생각할수록": 6879,
      "부족해": 6880,
      "비싸요": 6881,
      "소중합니다": 6882,
      "속이는": 6883,
      "응원할게요": 6884,
      "기간을": 6885,
      "데려가세요": 6886,
      "싸우고": 6887,
      "앞에선": 6888,
      "죽을거": 6889,
      "필요해보여요": 6890,
      "대화의": 6891,
      "버려야": 6892,
      "어렵다": 6893,
      "어머어머": 6894,
      "우산에": 6895,
      "월급은": 6896,
      "이러는": 6897,
      "바쁜일이": 6898,
      "비밀은": 6899,
      "비밀을": 6900,
      "쇼핑하고": 6901,
      "종교의": 6902,
      "청소하세요": 6903,
      "친구들한테": 6904,
      "분위기를": 6905,
      "취미네요": 6906,
      "커플링": 6907,
      "한가지만": 6908,
      "싫은데": 6909,
      "어쩌면": 6910,
      "여러명": 6911,
      "존중하고": 6912,
      "존중해주세요": 6913,
      "칭찬이네요": 6914,
      "칭찬해주고": 6915,
      "해결될": 6916,
      "해결되길": 6917,
      "10개월": 6918,
      "예민해": 6919,
      "취직하면": 6920,
      "헤아릴": 6921,
      "괜찮을거": 6922,
      "기본으로": 6923,
      "기본이죠": 6924,
      "먹었더니": 6925,
      "생긴다는": 6926,
      "쉬어가도": 6927,
      "썸녀가": 6928,
      "썸녀한테": 6929,
      "이기니": 6930,
      "키우는": 6931,
      "해졌어요": 6932,
      "기다릴게요": 6933,
      "부담스러워할까": 6934,
      "짜증나네": 6935,
      "귀여울": 6936,
      "변화도": 6937,
      "변화시켜": 6938,
      "불편한": 6939,
      "불편하겠죠": 6940,
      "사과할": 6941,
      "선생님께": 6942,
      "일주일이": 6943,
      "자유로": 6944,
      "졸업하는데": 6945,
      "졸업식에": 6946,
      "고마움을": 6947,
      "놀이공원": 6948,
      "병원가세요": 6949,
      "보냈네": 6950,
      "보냈습니다": 6951,
      "부탁드립니다": 6952,
      "삭제해보세요": 6953,
      "삭제하는게": 6954,
      "위험한": 6955,
      "위험해": 6956,
      "피해만": 6957,
      "감사하는": 6958,
      "나눠보는게": 6959,
      "무너져요": 6960,
      "부분을": 6961,
      "안타까": 6962,
      "어플로": 6963,
      "어플을": 6964,
      "거짓말은": 6965,
      "발전이": 6966,
      "벗어나는": 6967,
      "점심시간에": 6968,
      "지쳐서": 6969,
      "피부관리": 6970,
      "견디기": 6971,
      "무섭나요": 6972,
      "애매한": 6973,
      "없애주세요": 6974,
      "우연이": 6975,
      "이름이랑": 6976,
      "저녁에": 6977,
      "집에서도": 6978,
      "위로해드리는": 6979,
      "간절히": 6980,
      "간절하겠네요": 6981,
      "누군가": 6982,
      "미래를": 6983,
      "버스가": 6984,
      "비교하면": 6985,
      "시키는": 6986,
      "신고하고": 6987,
      "오해가": 6988,
      "중간에": 6989,
      "일어나세요": 6990,
      "갑작스럽": 6991,
      "갑작스러운": 6992,
      "결과가": 6993,
      "기울여": 6994,
      "깔끔해질": 6995,
      "대단하네요": 6996,
      "대단하시군요": 6997,
      "미안하다": 6998,
      "이럴까": 6999,
      "조급해지면": 7000,
      "희망은": 7001,
      "받아들여야": 7002,
      "견뎌내고": 7003,
      "깨달음": 7004,
      "남았네요": 7005,
      "더워서": 7006,
      "멀어진": 7007,
      "멀어지면": 7008,
      "시어머니": 7009,
      "야경이": 7010,
      "판단되면": 7011,
      "생각한대로": 7012,
      "결정이었을거라": 7013,
      "안타깝게": 7014,
      "근처로": 7015,
      "나올거": 7016,
      "멈추지": 7017,
      "멈추세요": 7018,
      "스키장": 7019,
      "시기네요": 7020,
      "클럽에서": 7021,
      "넘어가네": 7022,
      "모아야할": 7023,
      "산책을": 7024,
      "설렘이": 7025,
      "쓸데없는": 7026,
      "어찌해야": 7027,
      "움직이세요": 7028,
      "이불밖은": 7029,
      "제자리걸음": 7030,
      "진실된": 7031,
      "최악의": 7032,
      "치료하세요": 7033,
      "하셔야죠": 7034,
      "하루하루가": 7035,
      "고치기": 7036,
      "과식하지": 7037,
      "교양수업": 7038,
      "메뉴얼": 7039,
      "면도기": 7040,
      "목표네요": 7041,
      "보험처리": 7042,
      "빠르면": 7043,
      "아껴뒀나봐요": 7044,
      "외롭고": 7045,
      "용서하고": 7046,
      "절약되겠네요": 7047,
      "지칠만": 7048,
      "헬스장에": 7049,
      "해야하나봐": 7050,
      "프로포즈해보세요": 7051,
      "남겨서": 7052,
      "놀랐나봐요": 7053,
      "놀랐겠어요": 7054,
      "반가워요": 7055,
      "스테이크": 7056,
      "염색을": 7057,
      "유부남": 7058,
      "유부녀": 7059,
      "인공지능에": 7060,
      "인내할": 7061,
      "지진시": 7062,
      "콩깍지": 7063,
      "포근한": 7064,
      "휴식도": 7065,
      "알아차리지": 7066,
      "알아차려도": 7067,
      "기준이": 7068,
      "꼬박꼬박": 7069,
      "때로는": 7070,
      "마셨는데": 7071,
      "망가뜨리기": 7072,
      "메모하는": 7073,
      "모자라": 7074,
      "불공평해": 7075,
      "성별을": 7076,
      "센터에": 7077,
      "수면양말": 7078,
      "에너지가": 7079,
      "에너지를": 7080,
      "위해서예요": 7081,
      "의식하는": 7082,
      "잡아도": 7083,
      "해외여행": 7084,
      "좋아하시는구나": 7085,
      "보일러가": 7086,
      "간사하죠": 7087,
      "건들지": 7088,
      "깨닫다니": 7089,
      "낭만적인": 7090,
      "버티고": 7091,
      "세워보세요": 7092,
      "언니랑": 7093,
      "유효기간": 7094,
      "잇몸약": 7095,
      "좋으시네요": 7096,
      "주의하세요": 7097,
      "즐겁게": 7098,
      "하우스웨딩": 7099,
      "호의를": 7100,
      "결혼적령기": 7101,
      "아름답죠": 7102,
      "지하철에": 7103,
      "1주일": 7104,
      "단호하게": 7105,
      "동감입니다": 7106,
      "들리려고": 7107,
      "로봇이에요": 7108,
      "보름달": 7109,
      "세우지": 7110,
      "소액결": 7111,
      "소유하는": 7112,
      "수학여행": 7113,
      "심어볼까": 7114,
      "아쉬움이": 7115,
      "알뜰폰": 7116,
      "애틋한": 7117,
      "어둠에서": 7118,
      "어리석": 7119,
      "어젯밤": 7120,
      "잠재력을": 7121,
      "질러보세요": 7122,
      "찌질한": 7123,
      "초기화": 7124,
      "형편대로": 7125,
      "스타트업에": 7126,
      "두근거림을": 7127,
      "부딪혔나봐요": 7128,
      "애정표현일": 7129,
      "비행기표": 7130,
      "가볍게": 7131,
      "뒷담화": 7132,
      "들려주세요": 7133,
      "무한리필": 7134,
      "미용실": 7135,
      "비하하지는": 7136,
      "아팠으면": 7137,
      "염탐하지": 7138,
      "이모티콘": 7139,
      "지루해": 7140,
      "지저분해요": 7141,
      "친해지는게": 7142,
      "컴퓨터가": 7143,
      "편의점": 7144,
      "포장하는게": 7145,
      "연락두절돼서": 7146,
      "적응해야겠네요": 7147,
      "금수저로": 7148,
      "당분간은": 7149,
      "AS센터에": 7150,
      "각질제": 7151,
      "간직하세요": 7152,
      "개시해보세요": 7153,
      "그린라이트": 7154,
      "글쎄요": 7155,
      "낳을뿐이에요": 7156,
      "넓으신가봐요": 7157,
      "놔둬야하는데": 7158,
      "단체생활": 7159,
      "답정녀": 7160,
      "대피방법을": 7161,
      "되짚어보세요": 7162,
      "레시피": 7163,
      "만화같은": 7164,
      "망설여": 7165,
      "면역이": 7166,
      "벅찰텐대요": 7167,
      "베트남": 7168,
      "뻑뻑해": 7169,
      "살쪄도": 7170,
      "샌드위치": 7171,
      "아울렛": 7172,
      "애프터": 7173,
      "여쭤보세요": 7174,
      "원인이죠": 7175,
      "인터넷": 7176,
      "장학금": 7177,
      "저마다의": 7178,
      "정정기간을": 7179,
      "컨트롤": 7180,
      "한바퀴만": 7181,
      "호랑이보다": 7182,
      "해야겠네여": 7183,
      "챙겨드시거나": 7184,
      "따뜻해졌죠": 7185,
      "00일": 7186,
      "11": 7187,
      "15년": 7188,
      "3달": 7189,
      "6일째": 7190,
      "7개월": 7191,
      "9일째": 7192,
      ";;": 7193,
      "가량": 7194,
      "가본": 7195,
      "가시": 7196,
      "가에": 7197,
      "가죠": 7198,
      "가한": 7199,
      "가나봐요": 7200,
      "가보는": 7201,
      "가니까요": 7202,
      "가리는": 7203,
      "가거나": 7204,
      "가치가": 7205,
      "간당": 7206,
      "간섭": 7207,
      "간에": 7208,
      "갈궈": 7209,
      "갈등": 7210,
      "갑시다": 7211,
      "갔나": 7212,
      "갔네요": 7213,
      "갖자는": 7214,
      "같죠": 7215,
      "같다면": 7216,
      "거꾸": 7217,
      "거둬": 7218,
      "거든": 7219,
      "거란": 7220,
      "거니까요": 7221,
      "거두세요": 7222,
      "건들이": 7223,
      "걸이": 7224,
      "걸지도": 7225,
      "걸었어": 7226,
      "걸렸어": 7227,
      "겁나": 7228,
      "겁한": 7229,
      "겁니다": 7230,
      "것일": 7231,
      "것인가": 7232,
      "것일까": 7233,
      "견과": 7234,
      "견적": 7235,
      "경이": 7236,
      "계산": 7237,
      "계신": 7238,
      "계약": 7239,
      "고집": 7240,
      "고르는": 7241,
      "고독한": 7242,
      "곤두": 7243,
      "골랐": 7244,
      "골이": 7245,
      "공복": 7246,
      "공황": 7247,
      "공휴": 7248,
      "공감이": 7249,
      "과에서": 7250,
      "관찰": 7251,
      "구로": 7252,
      "구매": 7253,
      "구박": 7254,
      "구질": 7255,
      "구체적으로": 7256,
      "굳이": 7257,
      "그나": 7258,
      "그도": 7259,
      "그램": 7260,
      "그림": 7261,
      "그의": 7262,
      "그지": 7263,
      "그쪽": 7264,
      "그사람이": 7265,
      "그에게": 7266,
      "그것이": 7267,
      "극이": 7268,
      "근교": 7269,
      "근질": 7270,
      "기쁨": 7271,
      "기사": 7272,
      "기침": 7273,
      "기네요": 7274,
      "기만큼": 7275,
      "길래": 7276,
      "길을": 7277,
      "길거리": 7278,
      "깊었나봐요": 7279,
      "까아": 7280,
      "까먹고": 7281,
      "까먹었어": 7282,
      "깨어": 7283,
      "깨짐": 7284,
      "깨졌어": 7285,
      "꺼풀": 7286,
      "꼈어": 7287,
      "꾸죠": 7288,
      "꿈꾸": 7289,
      "끊기": 7290,
      "끊는": 7291,
      "끊어": 7292,
      "끊는게": 7293,
      "끊어야": 7294,
      "끌지": 7295,
      "끔하게": 7296,
      "끝나도": 7297,
      "끝내는": 7298,
      "끝일지도": 7299,
      "나고": 7300,
      "나란": 7301,
      "나름": 7302,
      "나보": 7303,
      "나빴": 7304,
      "나죠": 7305,
      "나겠어요": 7306,
      "나들이": 7307,
      "나니까": 7308,
      "나가지": 7309,
      "난감": 7310,
      "난다고": 7311,
      "날까": 7312,
      "날은": 7313,
      "날이에요": 7314,
      "날인데": 7315,
      "남녀": 7316,
      "남는게": 7317,
      "남기는": 7318,
      "났을": 7319,
      "났는지": 7320,
      "낮술": 7321,
      "내년": 7322,
      "내도": 7323,
      "내딛": 7324,
      "내는게": 7325,
      "내리지": 7326,
      "내버려": 7327,
      "너랑": 7328,
      "너와": 7329,
      "넋두": 7330,
      "넘게": 7331,
      "넘넘": 7332,
      "넘는": 7333,
      "노잼": 7334,
      "놀자": 7335,
      "놈의": 7336,
      "놓는": 7337,
      "놓치고": 7338,
      "놓치지": 7339,
      "누워": 7340,
      "누우면": 7341,
      "눈꺼풀": 7342,
      "느꼈": 7343,
      "는다": 7344,
      "는지도": 7345,
      "는다는": 7346,
      "늘어": 7347,
      "니깐": 7348,
      "님들": 7349,
      "다독": 7350,
      "다한": 7351,
      "다는데": 7352,
      "다갔어": 7353,
      "다되어가네": 7354,
      "달에": 7355,
      "달리세요": 7356,
      "답이야": 7357,
      "답장을": 7358,
      "당사": 7359,
      "당하고": 7360,
      "당했습니다": 7361,
      "당당히": 7362,
      "대쉬": 7363,
      "대하는": 7364,
      "대학원": 7365,
      "더군": 7366,
      "더이상": 7367,
      "던게": 7368,
      "덜덜": 7369,
      "덥다": 7370,
      "데도": 7371,
      "데리러": 7372,
      "도라": 7373,
      "도저": 7374,
      "독하고": 7375,
      "독하게": 7376,
      "돕는": 7377,
      "동차": 7378,
      "돼지": 7379,
      "됐다고": 7380,
      "되긴": 7381,
      "되실": 7382,
      "되돌아": 7383,
      "되시겠어요": 7384,
      "된다는": 7385,
      "될지": 7386,
      "됬네": 7387,
      "두렵": 7388,
      "둘다": 7389,
      "뒤돌아": 7390,
      "뒷통수": 7391,
      "드리러": 7392,
      "들게": 7393,
      "들지": 7394,
      "들어요": 7395,
      "들텐데": 7396,
      "들으며": 7397,
      "등이": 7398,
      "따져": 7399,
      "따끔하게": 7400,
      "딱히": 7401,
      "딱이죠": 7402,
      "딴짓": 7403,
      "때인": 7404,
      "때리는": 7405,
      "때리기": 7406,
      "땜에": 7407,
      "땡긴다": 7408,
      "떡볶": 7409,
      "떨떨": 7410,
      "똑같이": 7411,
      "똥차": 7412,
      "뜨끈": 7413,
      "뜨는": 7414,
      "라인": 7415,
      "란다": 7416,
      "란다면": 7417,
      "렸으면": 7418,
      "로션": 7419,
      "르몬": 7420,
      "른다": 7421,
      "름이": 7422,
      "리액션": 7423,
      "마라": 7424,
      "마트": 7425,
      "많겠지": 7426,
      "많지만": 7427,
      "말과": 7428,
      "말라": 7429,
      "말만": 7430,
      "말지": 7431,
      "말하면": 7432,
      "말할까": 7433,
      "말이죠": 7434,
      "말하는게": 7435,
      "말해야지": 7436,
      "말해보는": 7437,
      "맛없어": 7438,
      "망이지": 7439,
      "맞게": 7440,
      "맞은": 7441,
      "맞을": 7442,
      "맞이": 7443,
      "맞출": 7444,
      "맞나봐요": 7445,
      "맞다고": 7446,
      "맞나봅니다": 7447,
      "매몰": 7448,
      "매운": 7449,
      "매정": 7450,
      "먹나": 7451,
      "먹여": 7452,
      "먹기로": 7453,
      "멈출": 7454,
      "멋질": 7455,
      "멋있네요": 7456,
      "멘탈": 7457,
      "모여": 7458,
      "모처럼": 7459,
      "목욕": 7460,
      "목걸이": 7461,
      "몸과": 7462,
      "몸살": 7463,
      "몸에서": 7464,
      "못잊": 7465,
      "못자": 7466,
      "못할까": 7467,
      "못하는데": 7468,
      "못하네": 7469,
      "무지": 7470,
      "무관심": 7471,
      "묻어두": 7472,
      "물질이": 7473,
      "뭐하는지": 7474,
      "뭐하냐": 7475,
      "뭐하냐고": 7476,
      "뭘하면": 7477,
      "뭘까요": 7478,
      "미소": 7479,
      "미운": 7480,
      "미쳤": 7481,
      "믿는": 7482,
      "믿음": 7483,
      "믿었는데": 7484,
      "믿어주세요": 7485,
      "믿기지": 7486,
      "밑바닥": 7487,
      "바래": 7488,
      "바꿨어": 7489,
      "바란다면": 7490,
      "반영": 7491,
      "반이": 7492,
      "반째": 7493,
      "반에서": 7494,
      "반대로": 7495,
      "반했나봐요": 7496,
      "받음": 7497,
      "받았는데": 7498,
      "발라": 7499,
      "밤만": 7500,
      "밤새": 7501,
      "밤이": 7502,
      "밥은": 7503,
      "밥이나": 7504,
      "방비": 7505,
      "방식이": 7506,
      "방해가": 7507,
      "배불러": 7508,
      "백수": 7509,
      "뱃살": 7510,
      "버려요": 7511,
      "번만": 7512,
      "번을": 7513,
      "번째": 7514,
      "벌레": 7515,
      "벌면": 7516,
      "벗겨": 7517,
      "베리": 7518,
      "베란다": 7519,
      "벤츠": 7520,
      "변하고": 7521,
      "별의": 7522,
      "병행": 7523,
      "보드": 7524,
      "보려": 7525,
      "보수": 7526,
      "보약": 7527,
      "보임": 7528,
      "보거나": 7529,
      "보이나": 7530,
      "보셨나봐요": 7531,
      "보려구": 7532,
      "보인다": 7533,
      "보셔요": 7534,
      "볼때는": 7535,
      "봐봐요": 7536,
      "봤자": 7537,
      "봤으면": 7538,
      "봤습니다": 7539,
      "부케": 7540,
      "부팅": 7541,
      "부려보세요": 7542,
      "부리면": 7543,
      "부정적인": 7544,
      "분양": 7545,
      "분에게": 7546,
      "분인가봐요": 7547,
      "불만": 7548,
      "불순": 7549,
      "불쌍": 7550,
      "붙여": 7551,
      "블랙": 7552,
      "블루": 7553,
      "비만": 7554,
      "비쌈": 7555,
      "비와": 7556,
      "비친": 7557,
      "비트": 7558,
      "비해": 7559,
      "비혼": 7560,
      "비오는날": 7561,
      "비겁한": 7562,
      "빛이": 7563,
      "빛으로": 7564,
      "빼앗": 7565,
      "뻐근": 7566,
      "사무": 7567,
      "사계절": 7568,
      "사겼어": 7569,
      "살랑": 7570,
      "살죠": 7571,
      "살았는데": 7572,
      "살거야": 7573,
      "삶에": 7574,
      "삶은": 7575,
      "샀다": 7576,
      "샀는데": 7577,
      "상일": 7578,
      "상자를": 7579,
      "샜어": 7580,
      "서는": 7581,
      "서요": 7582,
      "서울": 7583,
      "서핑": 7584,
      "서점에서": 7585,
      "선의": 7586,
      "설렐": 7587,
      "설마": 7588,
      "섭섭": 7589,
      "성에": 7590,
      "성장을": 7591,
      "세달": 7592,
      "세탁": 7593,
      "셨어": 7594,
      "속아": 7595,
      "속지": 7596,
      "속시원": 7597,
      "손수건": 7598,
      "수십": 7599,
      "수제": 7600,
      "수천": 7601,
      "숙제": 7602,
      "숙취": 7603,
      "술자리": 7604,
      "숫자": 7605,
      "쉬다": 7606,
      "쉬면서": 7607,
      "스노": 7608,
      "스레": 7609,
      "스쳐": 7610,
      "스케": 7611,
      "슬플": 7612,
      "시방": 7613,
      "시에": 7614,
      "시지": 7615,
      "시켰": 7616,
      "시끄러워": 7617,
      "식사": 7618,
      "식욕": 7619,
      "식혀": 7620,
      "식었어": 7621,
      "실에": 7622,
      "실용": 7623,
      "심난": 7624,
      "심을": 7625,
      "심장": 7626,
      "심쿵": 7627,
      "싶고": 7628,
      "싶을": 7629,
      "싶나봐요": 7630,
      "싶지만": 7631,
      "싸울": 7632,
      "쌓인": 7633,
      "썸으로": 7634,
      "썸일까": 7635,
      "썸인가요": 7636,
      "썸이었으면": 7637,
      "쓰면": 7638,
      "쓰일": 7639,
      "쓰는게": 7640,
      "씁니다": 7641,
      "씨씨": 7642,
      "씹어": 7643,
      "아끼": 7644,
      "아날": 7645,
      "아냐": 7646,
      "아놔": 7647,
      "아래": 7648,
      "아려": 7649,
      "아시": 7650,
      "아니다": 7651,
      "안가": 7652,
      "안고": 7653,
      "안풀": 7654,
      "안좋아하는": 7655,
      "안해줘": 7656,
      "안됩니다": 7657,
      "안오지": 7658,
      "않기": 7659,
      "않으": 7660,
      "않습니다": 7661,
      "알긴": 7662,
      "았어요": 7663,
      "았더니": 7664,
      "애완": 7665,
      "야구": 7666,
      "야식": 7667,
      "약점": 7668,
      "약간의": 7669,
      "양을": 7670,
      "양치": 7671,
      "얘는": 7672,
      "어딘": 7673,
      "어언": 7674,
      "어째": 7675,
      "어두세요": 7676,
      "어이가": 7677,
      "억울": 7678,
      "얼떨떨": 7679,
      "없게": 7680,
      "없앨": 7681,
      "없습니다": 7682,
      "없다는": 7683,
      "없대요": 7684,
      "없으면서": 7685,
      "었나": 7686,
      "었는": 7687,
      "었지": 7688,
      "었지만": 7689,
      "었을까": 7690,
      "었나봅니다": 7691,
      "엉엉": 7692,
      "에이": 7693,
      "여도": 7694,
      "여의": 7695,
      "여주세요": 7696,
      "여기다": 7697,
      "여지를": 7698,
      "엮여": 7699,
      "연이": 7700,
      "연하": 7701,
      "연속이": 7702,
      "열까지": 7703,
      "였을까": 7704,
      "였는지": 7705,
      "영통": 7706,
      "영향": 7707,
      "영화를": 7708,
      "영화가": 7709,
      "예고": 7710,
      "예쁠": 7711,
      "예정": 7712,
      "예측": 7713,
      "예상하지": 7714,
      "오나": 7715,
      "오니": 7716,
      "옥상": 7717,
      "온대": 7718,
      "온다고": 7719,
      "올려보세요": 7720,
      "옵니다": 7721,
      "옷은": 7722,
      "왔나": 7723,
      "왔네요": 7724,
      "왜이": 7725,
      "왜케": 7726,
      "욕을": 7727,
      "욜로": 7728,
      "용품": 7729,
      "우습": 7730,
      "울컥": 7731,
      "웃게": 7732,
      "웃고": 7733,
      "웃으면": 7734,
      "웃는게": 7735,
      "워시": 7736,
      "원해": 7737,
      "원하지": 7738,
      "월요": 7739,
      "월요일": 7740,
      "웠던": 7741,
      "웠나봐요": 7742,
      "위축": 7743,
      "유료": 7744,
      "유통": 7745,
      "으으": 7746,
      "으라고": 7747,
      "을때는": 7748,
      "의외": 7749,
      "의존": 7750,
      "의도는": 7751,
      "이를": 7752,
      "이브": 7753,
      "이자": 7754,
      "이집": 7755,
      "이니까요": 7756,
      "이대로": 7757,
      "이면서": 7758,
      "이성이": 7759,
      "이김에": 7760,
      "이끌어": 7761,
      "인도": 7762,
      "인트": 7763,
      "인신고": 7764,
      "인고의": 7765,
      "일과": 7766,
      "일인": 7767,
      "일일": 7768,
      "일에는": 7769,
      "일기를": 7770,
      "일수록": 7771,
      "일부로": 7772,
      "임금": 7773,
      "임말": 7774,
      "입장을": 7775,
      "있음을": 7776,
      "있도록": 7777,
      "잊은": 7778,
      "잊자": 7779,
      "잊는게": 7780,
      "잊기가": 7781,
      "자다": 7782,
      "자야": 7783,
      "자야겠다": 7784,
      "자극이": 7785,
      "자동차": 7786,
      "작용": 7787,
      "작아지": 7788,
      "잔치": 7789,
      "잔소리": 7790,
      "잘한": 7791,
      "잘하게": 7792,
      "잘할까": 7793,
      "잘살고": 7794,
      "잘하니": 7795,
      "잘되고": 7796,
      "잘해주면": 7797,
      "잘자요": 7798,
      "잘하셨어요": 7799,
      "잘되니까": 7800,
      "잠들": 7801,
      "잠식": 7802,
      "잡았": 7803,
      "잡았어": 7804,
      "장점": 7805,
      "장점을": 7806,
      "재채": 7807,
      "재설계": 7808,
      "쟁이": 7809,
      "저기": 7810,
      "저만": 7811,
      "저음": 7812,
      "저장": 7813,
      "저주": 7814,
      "적인데": 7815,
      "적어도": 7816,
      "전의": 7817,
      "전할": 7818,
      "전으로": 7819,
      "전에는": 7820,
      "전기가": 7821,
      "절망": 7822,
      "접은": 7823,
      "접촉": 7824,
      "정열": 7825,
      "정하고": 7826,
      "정성이": 7827,
      "정답이": 7828,
      "정답을": 7829,
      "젖은": 7830,
      "제로": 7831,
      "제습": 7832,
      "제정신이": 7833,
      "조별": 7834,
      "졸라": 7835,
      "종종": 7836,
      "좋네": 7837,
      "좋다고": 7838,
      "좋겠습니다": 7839,
      "좋더라": 7840,
      "좋으니": 7841,
      "주길": 7842,
      "주절": 7843,
      "주체": 7844,
      "주행": 7845,
      "주는데": 7846,
      "주인공": 7847,
      "죽겠어": 7848,
      "준대": 7849,
      "줄도": 7850,
      "줄여": 7851,
      "줄일": 7852,
      "줄임말": 7853,
      "중문": 7854,
      "중이": 7855,
      "줘서": 7856,
      "즈를": 7857,
      "즐길": 7858,
      "증거": 7859,
      "증을": 7860,
      "지날": 7861,
      "지마": 7862,
      "지수": 7863,
      "지적": 7864,
      "지질": 7865,
      "지겠지": 7866,
      "지니까요": 7867,
      "지워질": 7868,
      "지부지": 7869,
      "직후": 7870,
      "진통": 7871,
      "질긴": 7872,
      "질거예요": 7873,
      "질뻔했어": 7874,
      "집앞": 7875,
      "집까지": 7876,
      "짓게": 7877,
      "짼데": 7878,
      "쪼금": 7879,
      "찍었네": 7880,
      "찍어주세요": 7881,
      "찔려": 7882,
      "차게": 7883,
      "차로": 7884,
      "찬물": 7885,
      "찰랑": 7886,
      "참겠어": 7887,
      "참다가": 7888,
      "찼어": 7889,
      "창피해": 7890,
      "찾은": 7891,
      "척해": 7892,
      "척하는게": 7893,
      "천국": 7894,
      "첫사랑을": 7895,
      "쳐서": 7896,
      "초라": 7897,
      "춥고": 7898,
      "충실": 7899,
      "취소": 7900,
      "치마": 7901,
      "치킨": 7902,
      "친군": 7903,
      "침해": 7904,
      "카공": 7905,
      "커풀": 7906,
      "컴터가": 7907,
      "크시겠어요": 7908,
      "크기만큼": 7909,
      "큰일": 7910,
      "키기": 7911,
      "키는": 7912,
      "타도": 7913,
      "탄다": 7914,
      "탈까": 7915,
      "탓하지": 7916,
      "태그": 7917,
      "톡을": 7918,
      "통이": 7919,
      "통장": 7920,
      "투잡": 7921,
      "트는": 7922,
      "트를": 7923,
      "특히": 7924,
      "틀어": 7925,
      "티나나": 7926,
      "판도라": 7927,
      "팔아보세요": 7928,
      "편린": 7929,
      "편해": 7930,
      "편하다는": 7931,
      "평범": 7932,
      "포인트": 7933,
      "폭발": 7934,
      "표출": 7935,
      "푸석": 7936,
      "풀리": 7937,
      "풀어야": 7938,
      "피고": 7939,
      "피하고": 7940,
      "피시방": 7941,
      "하객": 7942,
      "하곤": 7943,
      "하필": 7944,
      "하겠지만": 7945,
      "하라는": 7946,
      "한결": 7947,
      "한눈": 7948,
      "한대": 7949,
      "한듯": 7950,
      "한없이": 7951,
      "할게": 7952,
      "할인": 7953,
      "할거예요": 7954,
      "핫한": 7955,
      "해봐": 7956,
      "해내고": 7957,
      "했다는": 7958,
      "했었는데": 7959,
      "했는지": 7960,
      "향수가": 7961,
      "허기": 7962,
      "허허": 7963,
      "허상일": 7964,
      "헌신": 7965,
      "헛된": 7966,
      "헥헥": 7967,
      "현관": 7968,
      "현상": 7969,
      "혔어": 7970,
      "호르몬": 7971,
      "혼내": 7972,
      "혼밥": 7973,
      "혼인신고": 7974,
      "화난": 7975,
      "화학": 7976,
      "화해": 7977,
      "후배가": 7978,
      "훈훈": 7979,
      "휘둘": 7980,
      "휴유증": 7981,
      "흐려": 7982,
      "흐지부지": 7983,
      "흔적이": 7984,
      "흘리세요": 7985,
      "히는": 7986,
      "히스테": 7987,
      "힘은": 7988,
      "사람만의": 7989,
      "사람일지도": 7990,
      "좋아져": 7991,
      "좋아진": 7992,
      "좋아졌어": 7993,
      "좋아했나봐요": 7994,
      "좋아하니까": 7995,
      "좋아했지만": 7996,
      "사랑만": 7997,
      "사랑하세요": 7998,
      "사랑하게": 7999,
      "사랑보다": 8000,
      "사랑합니다": 8001,
      "사랑이야기": 8002,
      "사랑했어": 8003,
      "사랑해주는": 8004,
      "사랑받는": 8005,
      "사랑해줄": 8006,
      "사랑하나봅니다": 8007,
      "생각지": 8008,
      "생각지도": 8009,
      "생각입니다": 8010,
      "생각했던": 8011,
      "생각인지": 8012,
      "생각처럼": 8013,
      "생각없이": 8014,
      "생각하면서": 8015,
      "생각일까": 8016,
      "생각하나봐요": 8017,
      "친구에게": 8018,
      "친구들은": 8019,
      "는데는": 8020,
      "하고싶은": 8021,
      "마음껏": 8022,
      "마음이에요": 8023,
      "마음에게": 8024,
      "마음가는": 8025,
      "마음인지": 8026,
      "마음정리하세요": 8027,
      "너무하네": 8028,
      "이별할": 8029,
      "이별하면": 8030,
      "이별이에요": 8031,
      "이별준비": 8032,
      "이별하려고": 8033,
      "연락했어": 8034,
      "연락오네": 8035,
      "연락했습니다": 8036,
      "하지마": 8037,
      "여자인데": 8038,
      "남자의": 8039,
      "남자애랑": 8040,
      "힘들면": 8041,
      "힘들거라": 8042,
      "시간이에요": 8043,
      "시간낭비": 8044,
      "좋은지": 8045,
      "사람이었나봐요": 8046,
      "으로도": 8047,
      "있는거예요": 8048,
      "만나실": 8049,
      "만나기만": 8050,
      "오늘로": 8051,
      "해야겠어": 8052,
      "자신만의": 8053,
      "이제부터": 8054,
      "좋을지도": 8055,
      "괜찮지": 8056,
      "괜찮습니다": 8057,
      "아니니": 8058,
      "아니겠지": 8059,
      "아니었어": 8060,
      "연애도": 8061,
      "연애인": 8062,
      "연애상담": 8063,
      "연애할때": 8064,
      "연애였는데": 8065,
      "마음이네요": 8066,
      "필요가": 8067,
      "필요도": 8068,
      "모르겠다": 8069,
      "모르겠지만": 8070,
      "다른데": 8071,
      "시간이었을": 8072,
      "없어졌으면": 8073,
      "들어오면": 8074,
      "들어맞나봅니다": 8075,
      "짝남과": 8076,
      "짝남은": 8077,
      "헤어진지도": 8078,
      "보고만": 8079,
      "보고파": 8080,
      "당신만": 8081,
      "당신이네요": 8082,
      "다시는": 8083,
      "일이니까요": 8084,
      "일이라도": 8085,
      "정리하게": 8086,
      "정리하는데": 8087,
      "정리되길": 8088,
      "정리하길": 8089,
      "정리했습니다": 8090,
      "정리하려고": 8091,
      "결혼에": 8092,
      "결혼하": 8093,
      "결혼준비": 8094,
      "결혼이나": 8095,
      "결혼한지": 8096,
      "하나만": 8097,
      "중요하겠죠": 8098,
      "중요하니까요": 8099,
      "행복이": 8100,
      "행복하면": 8101,
      "행복했으면": 8102,
      "조금이나": 8103,
      "다가가도": 8104,
      "다가오고": 8105,
      "준비되어야": 8106,
      "고민을": 8107,
      "고민해보세요": 8108,
      "고민이네요": 8109,
      "사랑이라고": 8110,
      "사랑이었나봐요": 8111,
      "사랑이었으니까요": 8112,
      "보는것도": 8113,
      "선물해도": 8114,
      "찾아오네": 8115,
      "방법은": 8116,
      "방법이죠": 8117,
      "아무는": 8118,
      "아무런": 8119,
      "아무말도": 8120,
      "물어보거나": 8121,
      "고백이": 8122,
      "고백한": 8123,
      "고백해야": 8124,
      "고백했다": 8125,
      "고백받았어": 8126,
      "고백할까요": 8127,
      "이야기가": 8128,
      "이야기는": 8129,
      "이야기할": 8130,
      "이야기해요": 8131,
      "이야기하세요": 8132,
      "짝녀와": 8133,
      "그럴까요": 8134,
      "그럴수도": 8135,
      "싶은거": 8136,
      "싶은게": 8137,
      "짝사랑만": 8138,
      "짝사랑에서": 8139,
      "후회하면": 8140,
      "후회안할": 8141,
      "받아도": 8142,
      "사귀긴": 8143,
      "사귀다": 8144,
      "사귀세요": 8145,
      "사귀는데": 8146,
      "사귀자고": 8147,
      "사귀자는": 8148,
      "시작은": 8149,
      "시작을": 8150,
      "시작해": 8151,
      "시작하는": 8152,
      "헤어지네": 8153,
      "헤어지자는": 8154,
      "아닌가": 8155,
      "감정도": 8156,
      "여행지": 8157,
      "여행가고": 8158,
      "공부를": 8159,
      "공부하는": 8160,
      "공부할까": 8161,
      "공부하러": 8162,
      "하루일": 8163,
      "거라도": 8164,
      "이상의": 8165,
      "이상한가": 8166,
      "가고싶다": 8167,
      "걱정을": 8168,
      "걱정하면": 8169,
      "걱정마세요": 8170,
      "싫어졌어": 8171,
      "알아야": 8172,
      "알아가는": 8173,
      "데이트는": 8174,
      "데이트할": 8175,
      "데이트하고": 8176,
      "상대는": 8177,
      "상대에": 8178,
      "힘들어도": 8179,
      "기억될": 8180,
      "기억만": 8181,
      "머리로": 8182,
      "상처받는": 8183,
      "있었던": 8184,
      "있었어요": 8185,
      "있었나봅니다": 8186,
      "했던거": 8187,
      "언제부터": 8188,
      "표현하세요": 8189,
      "표현해주세요": 8190,
      "표현하기": 8191
    },
    "merges": [
      [
        "세",
        "요"
      ],
      [
        "하",
        "는"
      ],
      [
        "보",
        "세요"
      ],
      [
        "사",
        "람"
      ],
      [
        "예",
        "요"
      ],
      [
        "거",
        "예요"
      ],
      [
        "좋",
        "아"
      ],
      [
        "어",
        "요"
      ],
      [
        "사",
        "랑"
      ],
      [
        "네",
        "요"
      ],
      [
        "니",
        "다"
      ],
      [
        "생",
        "각"
      ],
      [
        "친",
        "구"
      ],
      [
        "해",
        "보세요"
      ],
      [
        "봐",
        "요"
      ],
      [
        "는",
        "데"
      ],
      [
        "하",
        "고"
      ],
      [
        "마",
        "음"
      ],
      [
        "같",
        "아"
      ],
      [
        "너",
        "무"
      ],
      [
        "좋아",
        "하는"
      ],
      [
        "이",
        "별"
      ],
      [
        "연",
        "락"
      ],
      [
        "하",
        "지"
      ],
      [
        "헤",
        "어"
      ],
      [
        "있",
        "을"
      ],
      [
        "여",
        "자"
      ],
      [
        "남",
        "자"
      ],
      [
        "으",
        "면"
      ],
      [
        "힘",
        "들"
      ],
      [
        "시",
        "간"
      ],
      [
        "해",
        "요"
      ],
      [
        "좋",
        "은"
      ],
      [
        "나",
        "봐요"
      ],
      [
        "많",
        "이"
      ],
      [
        "사람",
        "이"
      ],
      [
        "하",
        "면"
      ],
      [
        "하",
        "세요"
      ],
      [
        "에",
        "요"
      ],
      [
        "싶",
        "어"
      ],
      [
        "으",
        "로"
      ],
      [
        "한",
        "테"
      ],
      [
        "에",
        "서"
      ],
      [
        "같아",
        "요"
      ],
      [
        "있",
        "어요"
      ],
      [
        "까",
        "요"
      ],
      [
        "주",
        "세요"
      ],
      [
        "겠",
        "어요"
      ],
      [
        "아",
        "요"
      ],
      [
        "친구",
        "가"
      ],
      [
        "있",
        "는"
      ],
      [
        "만",
        "나"
      ],
      [
        "오",
        "늘"
      ],
      [
        "마",
        "세요"
      ],
      [
        "하",
        "게"
      ],
      [
        "해",
        "야"
      ],
      [
        "이",
        "에요"
      ],
      [
        "겠",
        "네요"
      ],
      [
        "자",
        "신"
      ],
      [
        "해",
        "도"
      ],
      [
        "이",
        "제"
      ],
      [
        "에",
        "게"
      ],
      [
        "겠",
        "지"
      ],
      [
        "좋",
        "을"
      ],
      [
        "습",
        "니다"
      ],
      [
        "괜",
        "찮"
      ],
      [
        "아",
        "니"
      ],
      [
        "연",
        "애"
      ],
      [
        "이",
        "야"
      ],
      [
        "라",
        "고"
      ],
      [
        "할",
        "까"
      ],
      [
        "마음",
        "이"
      ],
      [
        "싶",
        "다"
      ],
      [
        "게",
        "요"
      ],
      [
        "내",
        "가"
      ],
      [
        "필",
        "요"
      ],
      [
        "는",
        "게"
      ],
      [
        "모",
        "르"
      ],
      [
        "다",
        "른"
      ],
      [
        "가",
        "봐요"
      ],
      [
        "어",
        "떻"
      ],
      [
        "다",
        "면"
      ],
      [
        "시간",
        "이"
      ],
      [
        "없",
        "어"
      ],
      [
        "어떻",
        "게"
      ],
      [
        "들",
        "어"
      ],
      [
        "것",
        "도"
      ],
      [
        "짝",
        "남"
      ],
      [
        "헤어",
        "진"
      ],
      [
        "있",
        "어"
      ],
      [
        "보",
        "고"
      ],
      [
        "혼",
        "자"
      ],
      [
        "당",
        "신"
      ],
      [
        "겠",
        "어"
      ],
      [
        "겠",
        "죠"
      ],
      [
        "다",
        "고"
      ],
      [
        "다",
        "시"
      ],
      [
        "일",
        "이"
      ],
      [
        "수",
        "도"
      ],
      [
        "들",
        "이"
      ],
      [
        "정",
        "리"
      ],
      [
        "인",
        "데"
      ],
      [
        "정",
        "말"
      ],
      [
        "지",
        "금"
      ],
      [
        "결",
        "혼"
      ],
      [
        "하",
        "나"
      ],
      [
        "기",
        "다"
      ],
      [
        "같",
        "이"
      ],
      [
        "같",
        "은"
      ],
      [
        "그",
        "런"
      ],
      [
        "중",
        "요"
      ],
      [
        "제",
        "가"
      ],
      [
        "행",
        "복"
      ],
      [
        "조",
        "금"
      ],
      [
        "다",
        "가"
      ],
      [
        "준",
        "비"
      ],
      [
        "렇",
        "게"
      ],
      [
        "보",
        "다"
      ],
      [
        "고",
        "민"
      ],
      [
        "아",
        "직"
      ],
      [
        "해",
        "서"
      ],
      [
        "사랑",
        "이"
      ],
      [
        "라",
        "요"
      ],
      [
        "보",
        "는"
      ],
      [
        "선",
        "물"
      ],
      [
        "없",
        "는"
      ],
      [
        "지",
        "도"
      ],
      [
        "해",
        "주세요"
      ],
      [
        "없",
        "어요"
      ],
      [
        "자",
        "꾸"
      ],
      [
        "찾",
        "아"
      ],
      [
        "힘",
        "든"
      ],
      [
        "돼",
        "요"
      ],
      [
        "방",
        "법"
      ],
      [
        "아",
        "무"
      ],
      [
        "합",
        "니다"
      ],
      [
        "물",
        "어"
      ],
      [
        "저",
        "도"
      ],
      [
        "고",
        "백"
      ],
      [
        "까",
        "지"
      ],
      [
        "볼",
        "까"
      ],
      [
        "이",
        "라"
      ],
      [
        "지",
        "만"
      ],
      [
        "이야",
        "기"
      ],
      [
        "짝",
        "녀"
      ],
      [
        "했",
        "어"
      ],
      [
        "그",
        "럴"
      ],
      [
        "니",
        "까요"
      ],
      [
        "바",
        "랄"
      ],
      [
        "싶",
        "은"
      ],
      [
        "이",
        "네요"
      ],
      [
        "짝",
        "사랑"
      ],
      [
        "가",
        "는"
      ],
      [
        "대",
        "로"
      ],
      [
        "진",
        "짜"
      ],
      [
        "하",
        "기"
      ],
      [
        "겠",
        "다"
      ],
      [
        "서",
        "로"
      ],
      [
        "후",
        "회"
      ],
      [
        "먼",
        "저"
      ],
      [
        "받",
        "아"
      ],
      [
        "바랄",
        "게요"
      ],
      [
        "사",
        "귀"
      ],
      [
        "봅",
        "니다"
      ],
      [
        "될",
        "까"
      ],
      [
        "먹",
        "고"
      ],
      [
        "시",
        "작"
      ],
      [
        "헤어",
        "지"
      ],
      [
        "있을",
        "까"
      ],
      [
        "이",
        "죠"
      ],
      [
        "드",
        "세요"
      ],
      [
        "을",
        "까"
      ],
      [
        "헤어진",
        "지"
      ],
      [
        "하",
        "죠"
      ],
      [
        "인",
        "가"
      ],
      [
        "그",
        "녀"
      ],
      [
        "야",
        "지"
      ],
      [
        "에",
        "는"
      ],
      [
        "계",
        "속"
      ],
      [
        "아",
        "닌"
      ],
      [
        "자",
        "고"
      ],
      [
        "좋아",
        "요"
      ],
      [
        "가",
        "능"
      ],
      [
        "감",
        "정"
      ],
      [
        "나",
        "를"
      ],
      [
        "만",
        "큼"
      ],
      [
        "많",
        "은"
      ],
      [
        "여",
        "행"
      ],
      [
        "하는",
        "게"
      ],
      [
        "공",
        "부"
      ],
      [
        "하",
        "루"
      ],
      [
        "마음",
        "을"
      ],
      [
        "여자",
        "친구가"
      ],
      [
        "이",
        "트"
      ],
      [
        "지",
        "는"
      ],
      [
        "거",
        "라"
      ],
      [
        "기",
        "분"
      ],
      [
        "여자",
        "친구"
      ],
      [
        "힘",
        "드"
      ],
      [
        "하는",
        "데"
      ],
      [
        "려",
        "고"
      ],
      [
        "여",
        "친"
      ],
      [
        "이",
        "상"
      ],
      [
        "남자",
        "친구가"
      ],
      [
        "랍",
        "니다"
      ],
      [
        "가",
        "고"
      ],
      [
        "신",
        "경"
      ],
      [
        "않",
        "아요"
      ],
      [
        "기",
        "가"
      ],
      [
        "좋",
        "죠"
      ],
      [
        "다",
        "는"
      ],
      [
        "리",
        "는"
      ],
      [
        "했",
        "는데"
      ],
      [
        "니",
        "까"
      ],
      [
        "걱",
        "정"
      ],
      [
        "싫",
        "어"
      ],
      [
        "그",
        "래"
      ],
      [
        "나",
        "는"
      ],
      [
        "바",
        "랍니다"
      ],
      [
        "알",
        "아"
      ],
      [
        "관",
        "심"
      ],
      [
        "입",
        "니다"
      ],
      [
        "해",
        "주"
      ],
      [
        "데",
        "이트"
      ],
      [
        "상",
        "대"
      ],
      [
        "면",
        "서"
      ],
      [
        "남자",
        "친구"
      ],
      [
        "힘들",
        "어"
      ],
      [
        "기",
        "억"
      ],
      [
        "나",
        "요"
      ],
      [
        "남",
        "친"
      ],
      [
        "머",
        "리"
      ],
      [
        "되",
        "는"
      ],
      [
        "하",
        "네"
      ],
      [
        "화",
        "를"
      ],
      [
        "말",
        "해보세요"
      ],
      [
        "상",
        "처"
      ],
      [
        "적",
        "인"
      ],
      [
        "생각",
        "해요"
      ],
      [
        "사람",
        "은"
      ],
      [
        "로",
        "운"
      ],
      [
        "무",
        "슨"
      ],
      [
        "스",
        "러"
      ],
      [
        "이",
        "랑"
      ],
      [
        "있",
        "었"
      ],
      [
        "자",
        "기"
      ],
      [
        "타",
        "는"
      ],
      [
        "했",
        "던"
      ],
      [
        "어",
        "떨"
      ],
      [
        "이",
        "렇게"
      ],
      [
        "인",
        "지"
      ],
      [
        "좋",
        "겠어요"
      ],
      [
        "충",
        "분"
      ],
      [
        "걸",
        "까"
      ],
      [
        "어",
        "떤"
      ],
      [
        "언",
        "제"
      ],
      [
        "표",
        "현"
      ],
      [
        "말",
        "고"
      ],
      [
        "오",
        "래"
      ],
      [
        "있",
        "으면"
      ],
      [
        "카",
        "톡"
      ],
      [
        "하",
        "다"
      ],
      [
        "그",
        "냥"
      ],
      [
        "텐",
        "데"
      ],
      [
        "함",
        "께"
      ],
      [
        "부",
        "터"
      ],
      [
        "않",
        "는"
      ],
      [
        "헤어",
        "졌"
      ],
      [
        "나",
        "만"
      ],
      [
        "돌",
        "아"
      ],
      [
        "않",
        "을"
      ],
      [
        "어",
        "보세요"
      ],
      [
        "이",
        "었"
      ],
      [
        "힘드",
        "네"
      ],
      [
        "누",
        "구"
      ],
      [
        "몰",
        "라요"
      ],
      [
        "사랑",
        "은"
      ],
      [
        "왔",
        "어"
      ],
      [
        "이",
        "해"
      ],
      [
        "라",
        "도"
      ],
      [
        "보",
        "내"
      ],
      [
        "생",
        "겼"
      ],
      [
        "있",
        "는데"
      ],
      [
        "사람",
        "을"
      ],
      [
        "사랑",
        "하는"
      ],
      [
        "자신",
        "을"
      ],
      [
        "겠지",
        "만"
      ],
      [
        "결",
        "정"
      ],
      [
        "스",
        "트"
      ],
      [
        "이",
        "유"
      ],
      [
        "궁",
        "금"
      ],
      [
        "따",
        "라"
      ],
      [
        "리",
        "고"
      ],
      [
        "많",
        "아"
      ],
      [
        "보",
        "면"
      ],
      [
        "썸",
        "남"
      ],
      [
        "운",
        "동"
      ],
      [
        "내",
        "일"
      ],
      [
        "새",
        "로운"
      ],
      [
        "어",
        "디"
      ],
      [
        "가",
        "요"
      ],
      [
        "가",
        "지"
      ],
      [
        "선",
        "택"
      ],
      [
        "아",
        "프"
      ],
      [
        "애",
        "가"
      ],
      [
        "한",
        "달"
      ],
      [
        "어떨",
        "까요"
      ],
      [
        "부",
        "담"
      ],
      [
        "생각",
        "해보세요"
      ],
      [
        "스트",
        "레"
      ],
      [
        "미",
        "련"
      ],
      [
        "안",
        "돼"
      ],
      [
        "노",
        "력"
      ],
      [
        "지",
        "나"
      ],
      [
        "해",
        "볼까"
      ],
      [
        "기",
        "도"
      ],
      [
        "나",
        "한테"
      ],
      [
        "었",
        "어"
      ],
      [
        "처",
        "럼"
      ],
      [
        "회",
        "사"
      ],
      [
        "때",
        "문"
      ],
      [
        "전",
        "화"
      ],
      [
        "생각",
        "이"
      ],
      [
        "개",
        "월"
      ],
      [
        "직",
        "접"
      ],
      [
        "아니",
        "에요"
      ],
      [
        "가",
        "보세요"
      ],
      [
        "거",
        "나"
      ],
      [
        "않",
        "아"
      ],
      [
        "어",
        "도"
      ],
      [
        "오",
        "세요"
      ],
      [
        "조",
        "심"
      ],
      [
        "그",
        "러"
      ],
      [
        "았",
        "는데"
      ],
      [
        "인",
        "연"
      ],
      [
        "좋",
        "겠네요"
      ],
      [
        "하",
        "네요"
      ],
      [
        "연락",
        "이"
      ],
      [
        "같은",
        "데"
      ],
      [
        "노",
        "래"
      ],
      [
        "않",
        "았"
      ],
      [
        "어",
        "떡"
      ],
      [
        "없",
        "이"
      ],
      [
        "생각",
        "을"
      ],
      [
        "만",
        "날"
      ],
      [
        "아",
        "파"
      ],
      [
        "움",
        "이"
      ],
      [
        "이",
        "젠"
      ],
      [
        "재",
        "미"
      ],
      [
        "군",
        "요"
      ],
      [
        "그",
        "게"
      ],
      [
        "소",
        "개"
      ],
      [
        "쉽",
        "지"
      ],
      [
        "어",
        "려"
      ],
      [
        "으",
        "세요"
      ],
      [
        "인",
        "생"
      ],
      [
        "잘",
        "못"
      ],
      [
        "항",
        "상"
      ],
      [
        "이별",
        "을"
      ],
      [
        "괜찮",
        "아"
      ],
      [
        "신경",
        "쓰"
      ],
      [
        "스트레",
        "스"
      ],
      [
        "가",
        "세요"
      ],
      [
        "그",
        "렇게"
      ],
      [
        "동",
        "안"
      ],
      [
        "저",
        "는"
      ],
      [
        "해",
        "지"
      ],
      [
        "마음",
        "에"
      ],
      [
        "짝남",
        "이"
      ],
      [
        "그",
        "만"
      ],
      [
        "달",
        "라"
      ],
      [
        "이",
        "나"
      ],
      [
        "적",
        "으로"
      ],
      [
        "좋",
        "겠다"
      ],
      [
        "모르",
        "겠어"
      ],
      [
        "싶은",
        "데"
      ],
      [
        "느",
        "낌"
      ],
      [
        "말",
        "을"
      ],
      [
        "바",
        "라요"
      ],
      [
        "인",
        "가봐요"
      ],
      [
        "처",
        "음"
      ],
      [
        "기",
        "를"
      ],
      [
        "때",
        "가"
      ],
      [
        "상",
        "황"
      ],
      [
        "어",
        "때"
      ],
      [
        "해",
        "줘"
      ],
      [
        "사랑",
        "을"
      ],
      [
        "나",
        "봅니다"
      ],
      [
        "려",
        "보세요"
      ],
      [
        "리",
        "세요"
      ],
      [
        "사",
        "이"
      ],
      [
        "우",
        "리"
      ],
      [
        "위",
        "로"
      ],
      [
        "있",
        "죠"
      ],
      [
        "축",
        "하"
      ],
      [
        "나",
        "이"
      ],
      [
        "만",
        "났"
      ],
      [
        "만",
        "들"
      ],
      [
        "졌",
        "어"
      ],
      [
        "해",
        "봐요"
      ],
      [
        "중요",
        "한"
      ],
      [
        "찾아",
        "보세요"
      ],
      [
        "답",
        "답"
      ],
      [
        "되",
        "었"
      ],
      [
        "만",
        "에"
      ],
      [
        "맞",
        "는"
      ],
      [
        "스",
        "럽"
      ],
      [
        "습",
        "관"
      ],
      [
        "추",
        "억"
      ],
      [
        "했",
        "나봐요"
      ],
      [
        "확",
        "실"
      ],
      [
        "이별",
        "은"
      ],
      [
        "하면",
        "서"
      ],
      [
        "결",
        "국"
      ],
      [
        "나",
        "봐"
      ],
      [
        "이",
        "어"
      ],
      [
        "챙",
        "겨"
      ],
      [
        "화",
        "가"
      ],
      [
        "화",
        "장"
      ],
      [
        "관",
        "계"
      ],
      [
        "기",
        "대"
      ],
      [
        "다",
        "음"
      ],
      [
        "매",
        "일"
      ],
      [
        "보",
        "여"
      ],
      [
        "않",
        "은"
      ],
      [
        "잊",
        "어"
      ],
      [
        "현",
        "실"
      ],
      [
        "생각",
        "나"
      ],
      [
        "괜찮",
        "아요"
      ],
      [
        "감",
        "이"
      ],
      [
        "거",
        "리"
      ],
      [
        "내",
        "세요"
      ],
      [
        "달",
        "라고"
      ],
      [
        "말",
        "씀"
      ],
      [
        "세",
        "상"
      ],
      [
        "요",
        "즘"
      ],
      [
        "있",
        "게"
      ],
      [
        "정",
        "신"
      ],
      [
        "좋",
        "겠어"
      ],
      [
        "중",
        "에"
      ],
      [
        "집",
        "에"
      ],
      [
        "편",
        "이"
      ],
      [
        "충분",
        "히"
      ],
      [
        "건",
        "가"
      ],
      [
        "건",
        "강"
      ],
      [
        "그",
        "렇"
      ],
      [
        "대",
        "한"
      ],
      [
        "대",
        "화를"
      ],
      [
        "도",
        "움이"
      ],
      [
        "받",
        "고"
      ],
      [
        "수",
        "록"
      ],
      [
        "순",
        "간"
      ],
      [
        "의",
        "미"
      ],
      [
        "사랑",
        "한"
      ],
      [
        "좋을",
        "까"
      ],
      [
        "가",
        "져"
      ],
      [
        "마",
        "지"
      ],
      [
        "만",
        "남"
      ],
      [
        "먹",
        "어"
      ],
      [
        "소",
        "리"
      ],
      [
        "심",
        "히"
      ],
      [
        "열",
        "심히"
      ],
      [
        "있",
        "나봐요"
      ],
      [
        "아직",
        "도"
      ],
      [
        "물어",
        "보세요"
      ],
      [
        "때문",
        "에"
      ],
      [
        "마지",
        "막"
      ],
      [
        "1",
        "년"
      ],
      [
        "건",
        "지"
      ],
      [
        "나",
        "쁜"
      ],
      [
        "았",
        "어"
      ],
      [
        "언",
        "젠"
      ],
      [
        "주",
        "는"
      ],
      [
        "지",
        "요"
      ],
      [
        "추",
        "천"
      ],
      [
        "확",
        "인"
      ],
      [
        "마음",
        "의"
      ],
      [
        "연락",
        "을"
      ],
      [
        "가",
        "슴"
      ],
      [
        "거",
        "야"
      ],
      [
        "나",
        "서"
      ],
      [
        "다",
        "니"
      ],
      [
        "만",
        "들어"
      ],
      [
        "말",
        "아요"
      ],
      [
        "부",
        "모"
      ],
      [
        "살",
        "고"
      ],
      [
        "아",
        "침"
      ],
      [
        "얼",
        "른"
      ],
      [
        "마",
        "시"
      ],
      [
        "말",
        "이"
      ],
      [
        "안",
        "되"
      ],
      [
        "영",
        "화"
      ],
      [
        "일",
        "까"
      ],
      [
        "일",
        "어"
      ],
      [
        "사랑",
        "의"
      ],
      [
        "연락",
        "해보세요"
      ],
      [
        "헤어",
        "짐"
      ],
      [
        "시간",
        "을"
      ],
      [
        "오늘",
        "도"
      ],
      [
        "상대",
        "방"
      ],
      [
        "같",
        "애"
      ],
      [
        "보",
        "이"
      ],
      [
        "워",
        "요"
      ],
      [
        "으",
        "니까요"
      ],
      [
        "이",
        "런"
      ],
      [
        "지",
        "내"
      ],
      [
        "한",
        "번"
      ],
      [
        "한",
        "가봐요"
      ],
      [
        "생각",
        "해"
      ],
      [
        "짝녀",
        "가"
      ],
      [
        "가",
        "장"
      ],
      [
        "귀",
        "찮"
      ],
      [
        "그",
        "리"
      ],
      [
        "다",
        "르"
      ],
      [
        "드",
        "릴"
      ],
      [
        "마",
        "다"
      ],
      [
        "안",
        "해"
      ],
      [
        "어",
        "느"
      ],
      [
        "어",
        "제"
      ],
      [
        "완",
        "전"
      ],
      [
        "재",
        "회"
      ],
      [
        "정",
        "도"
      ],
      [
        "제",
        "일"
      ],
      [
        "커",
        "피"
      ],
      [
        "사람",
        "들"
      ],
      [
        "당신",
        "의"
      ],
      [
        "조금",
        "만"
      ],
      [
        "이라",
        "도"
      ],
      [
        "조심",
        "하세요"
      ],
      [
        "부모",
        "님"
      ],
      [
        "떨",
        "어"
      ],
      [
        "라",
        "면"
      ],
      [
        "못",
        "하"
      ],
      [
        "바",
        "람"
      ],
      [
        "사",
        "는"
      ],
      [
        "아",
        "닐"
      ],
      [
        "적",
        "이"
      ],
      [
        "한",
        "지"
      ],
      [
        "핸",
        "드"
      ],
      [
        "조금",
        "씩"
      ],
      [
        "헤어지",
        "고"
      ],
      [
        "감",
        "을"
      ],
      [
        "나",
        "가"
      ],
      [
        "사",
        "진"
      ],
      [
        "알",
        "려"
      ],
      [
        "얼",
        "마"
      ],
      [
        "없",
        "네"
      ],
      [
        "지",
        "지"
      ],
      [
        "진",
        "심"
      ],
      [
        "남자",
        "가"
      ],
      [
        "더",
        "니"
      ],
      [
        "많",
        "았"
      ],
      [
        "모",
        "든"
      ],
      [
        "살",
        "아"
      ],
      [
        "성",
        "공"
      ],
      [
        "쉬",
        "운"
      ],
      [
        "스",
        "타"
      ],
      [
        "잊",
        "혀"
      ],
      [
        "자",
        "연"
      ],
      [
        "잘",
        "할"
      ],
      [
        "사람이",
        "랑"
      ],
      [
        "기다",
        "리"
      ],
      [
        "그래",
        "도"
      ],
      [
        "핸드",
        "폰"
      ],
      [
        "갑",
        "자기"
      ],
      [
        "거",
        "죠"
      ],
      [
        "고",
        "생"
      ],
      [
        "모",
        "습"
      ],
      [
        "스",
        "로"
      ],
      [
        "알",
        "았는데"
      ],
      [
        "엄",
        "마"
      ],
      [
        "없",
        "을"
      ],
      [
        "연",
        "습"
      ],
      [
        "인",
        "정"
      ],
      [
        "하",
        "시"
      ],
      [
        "하",
        "겠어요"
      ],
      [
        "이별",
        "이"
      ],
      [
        "만나",
        "고"
      ],
      [
        "자신",
        "의"
      ],
      [
        "중요",
        "해요"
      ],
      [
        "스러",
        "운"
      ],
      [
        "되",
        "어"
      ],
      [
        "모",
        "두"
      ],
      [
        "문",
        "제"
      ],
      [
        "생",
        "활"
      ],
      [
        "시",
        "켜"
      ],
      [
        "싶",
        "어요"
      ],
      [
        "엄",
        "청"
      ],
      [
        "예",
        "의"
      ],
      [
        "오",
        "는"
      ],
      [
        "폭",
        "풍"
      ],
      [
        "확",
        "신"
      ],
      [
        "사람",
        "들이"
      ],
      [
        "여자",
        "가"
      ],
      [
        "모르",
        "는"
      ],
      [
        "드릴",
        "게요"
      ],
      [
        "가",
        "끔"
      ],
      [
        "나",
        "도"
      ],
      [
        "나",
        "와"
      ],
      [
        "날",
        "씨"
      ],
      [
        "내",
        "려"
      ],
      [
        "복",
        "잡"
      ],
      [
        "스",
        "스로"
      ],
      [
        "얼",
        "굴"
      ],
      [
        "예",
        "뻐"
      ],
      [
        "재",
        "밌"
      ],
      [
        "했",
        "으면"
      ],
      [
        "좋아",
        "할"
      ],
      [
        "해야",
        "지"
      ],
      [
        "필요",
        "한"
      ],
      [
        "짝남",
        "한테"
      ],
      [
        "가",
        "서"
      ],
      [
        "눈",
        "물"
      ],
      [
        "상",
        "관"
      ],
      [
        "일",
        "을"
      ],
      [
        "자",
        "주"
      ],
      [
        "후",
        "폭풍"
      ],
      [
        "사람",
        "한테"
      ],
      [
        "정리",
        "가"
      ],
      [
        "소개",
        "팅"
      ],
      [
        "것",
        "이"
      ],
      [
        "관",
        "리"
      ],
      [
        "됐",
        "어"
      ],
      [
        "되",
        "길"
      ],
      [
        "되",
        "나"
      ],
      [
        "떠",
        "나"
      ],
      [
        "무",
        "시"
      ],
      [
        "뭘",
        "까"
      ],
      [
        "실",
        "수"
      ],
      [
        "심",
        "해"
      ],
      [
        "아",
        "픈"
      ],
      [
        "알",
        "바"
      ],
      [
        "저",
        "랑"
      ],
      [
        "전",
        "에"
      ],
      [
        "짜",
        "증"
      ],
      [
        "당신",
        "이"
      ],
      [
        "기분",
        "이"
      ],
      [
        "감",
        "기"
      ],
      [
        "날",
        "이"
      ],
      [
        "도",
        "와"
      ],
      [
        "력",
        "이"
      ],
      [
        "무",
        "서"
      ],
      [
        "별",
        "로"
      ],
      [
        "아",
        "픔"
      ],
      [
        "있",
        "다면"
      ],
      [
        "잘",
        "하는"
      ],
      [
        "차",
        "단"
      ],
      [
        "피",
        "곤"
      ],
      [
        "학",
        "교"
      ],
      [
        "생각",
        "보다"
      ],
      [
        "괜찮",
        "은"
      ],
      [
        "모르",
        "겠어요"
      ],
      [
        "지금",
        "도"
      ],
      [
        "기다",
        "려"
      ],
      [
        "어떡",
        "해"
      ],
      [
        "게",
        "임"
      ],
      [
        "극",
        "복"
      ],
      [
        "다",
        "녀"
      ],
      [
        "되",
        "지"
      ],
      [
        "분",
        "이"
      ],
      [
        "빨",
        "리"
      ],
      [
        "뿐",
        "이에요"
      ],
      [
        "쁘",
        "게"
      ],
      [
        "자",
        "리"
      ],
      [
        "오늘",
        "은"
      ],
      [
        "행복",
        "해"
      ],
      [
        "받아",
        "들이"
      ],
      [
        "가",
        "면"
      ],
      [
        "가",
        "야"
      ],
      [
        "가",
        "족"
      ],
      [
        "끝",
        "났"
      ],
      [
        "라",
        "는"
      ],
      [
        "만",
        "난"
      ],
      [
        "뭐",
        "가"
      ],
      [
        "붙",
        "잡"
      ],
      [
        "솔",
        "직"
      ],
      [
        "었",
        "는데"
      ],
      [
        "일",
        "째"
      ],
      [
        "있",
        "나"
      ],
      [
        "잘",
        "하고"
      ],
      [
        "지",
        "켜"
      ],
      [
        "천",
        "천"
      ],
      [
        "하",
        "셨"
      ],
      [
        "사람",
        "도"
      ],
      [
        "사랑",
        "에"
      ],
      [
        "친구",
        "랑"
      ],
      [
        "해주",
        "는"
      ],
      [
        "천천",
        "히"
      ],
      [
        "기",
        "는"
      ],
      [
        "기",
        "로"
      ],
      [
        "기",
        "까지"
      ],
      [
        "끝",
        "이"
      ],
      [
        "따",
        "뜻"
      ],
      [
        "려",
        "요"
      ],
      [
        "마",
        "주"
      ],
      [
        "맛",
        "있게"
      ],
      [
        "벌",
        "써"
      ],
      [
        "설",
        "레"
      ],
      [
        "외",
        "로"
      ],
      [
        "점",
        "점"
      ],
      [
        "지",
        "가"
      ],
      [
        "직",
        "장"
      ],
      [
        "하",
        "겠네요"
      ],
      [
        "했",
        "어요"
      ],
      [
        "환",
        "승"
      ],
      [
        "자신",
        "이"
      ],
      [
        "인연",
        "이"
      ],
      [
        "확신",
        "이"
      ],
      [
        "는",
        "지"
      ],
      [
        "두",
        "려"
      ],
      [
        "드",
        "는"
      ],
      [
        "때",
        "는"
      ],
      [
        "마",
        "스"
      ],
      [
        "받",
        "는"
      ],
      [
        "사",
        "세요"
      ],
      [
        "살",
        "펴"
      ],
      [
        "아",
        "는"
      ],
      [
        "아",
        "이"
      ],
      [
        "안",
        "녕"
      ],
      [
        "운",
        "명"
      ],
      [
        "힘",
        "이"
      ],
      [
        "겠지",
        "요"
      ],
      [
        "당신",
        "을"
      ],
      [
        "놓",
        "아"
      ],
      [
        "들",
        "을"
      ],
      [
        "배",
        "우"
      ],
      [
        "버",
        "리세요"
      ],
      [
        "오",
        "네"
      ],
      [
        "이",
        "면"
      ],
      [
        "잠",
        "시"
      ],
      [
        "주",
        "변"
      ],
      [
        "해",
        "보는"
      ],
      [
        "행",
        "동"
      ],
      [
        "힘",
        "내세요"
      ],
      [
        "연락",
        "하고"
      ],
      [
        "힘들",
        "었"
      ],
      [
        "하나",
        "씩"
      ],
      [
        "이유",
        "가"
      ],
      [
        "2",
        "년"
      ],
      [
        "놀",
        "러"
      ],
      [
        "눈",
        "을"
      ],
      [
        "믿",
        "어요"
      ],
      [
        "성",
        "격"
      ],
      [
        "시",
        "원"
      ],
      [
        "익",
        "숙"
      ],
      [
        "일",
        "찍"
      ],
      [
        "지",
        "났"
      ],
      [
        "집",
        "착"
      ],
      [
        "하",
        "길"
      ],
      [
        "해",
        "줄"
      ],
      [
        "만나",
        "는"
      ],
      [
        "서로",
        "에게"
      ],
      [
        "사귀",
        "고"
      ],
      [
        "아닌",
        "데"
      ],
      [
        "스러",
        "워"
      ],
      [
        "신경쓰",
        "지"
      ],
      [
        "언젠",
        "간"
      ],
      [
        "많았",
        "어요"
      ],
      [
        "나",
        "을"
      ],
      [
        "느",
        "껴"
      ],
      [
        "도",
        "전"
      ],
      [
        "마",
        "련"
      ],
      [
        "무",
        "엇"
      ],
      [
        "보",
        "지"
      ],
      [
        "슬",
        "픈"
      ],
      [
        "않",
        "죠"
      ],
      [
        "우",
        "울"
      ],
      [
        "정",
        "이"
      ],
      [
        "주",
        "말"
      ],
      [
        "즐",
        "거"
      ],
      [
        "차",
        "이"
      ],
      [
        "하",
        "던"
      ],
      [
        "하",
        "려"
      ],
      [
        "했",
        "습니다"
      ],
      [
        "힘들",
        "다"
      ],
      [
        "못하",
        "겠어"
      ],
      [
        "가",
        "기"
      ],
      [
        "곳",
        "으로"
      ],
      [
        "나",
        "아"
      ],
      [
        "놓",
        "고"
      ],
      [
        "다",
        "를"
      ],
      [
        "되",
        "겠네요"
      ],
      [
        "래",
        "도"
      ],
      [
        "리",
        "지"
      ],
      [
        "먹",
        "으면"
      ],
      [
        "받",
        "을"
      ],
      [
        "버",
        "렸"
      ],
      [
        "번",
        "호"
      ],
      [
        "싶",
        "네요"
      ],
      [
        "에",
        "도"
      ],
      [
        "여",
        "유"
      ],
      [
        "오",
        "랜"
      ],
      [
        "원",
        "하는"
      ],
      [
        "위",
        "해"
      ],
      [
        "이",
        "겨"
      ],
      [
        "잊",
        "는"
      ],
      [
        "잊",
        "지"
      ],
      [
        "자",
        "존"
      ],
      [
        "주",
        "고"
      ],
      [
        "주",
        "무"
      ],
      [
        "카",
        "페"
      ],
      [
        "한",
        "데"
      ],
      [
        "후",
        "련"
      ],
      [
        "힘들",
        "게"
      ],
      [
        "있었",
        "나봐요"
      ],
      [
        "간",
        "다"
      ],
      [
        "거",
        "짓"
      ],
      [
        "꿈",
        "에"
      ],
      [
        "끝",
        "나"
      ],
      [
        "눈",
        "이"
      ],
      [
        "다",
        "행"
      ],
      [
        "때",
        "까지"
      ],
      [
        "뭐",
        "야"
      ],
      [
        "보",
        "는게"
      ],
      [
        "부",
        "러"
      ],
      [
        "알",
        "게"
      ],
      [
        "애",
        "한테"
      ],
      [
        "없",
        "죠"
      ],
      [
        "연",
        "인"
      ],
      [
        "용",
        "기"
      ],
      [
        "자",
        "체"
      ],
      [
        "주",
        "지"
      ],
      [
        "최",
        "고"
      ],
      [
        "포",
        "기"
      ],
      [
        "한",
        "다"
      ],
      [
        "헷",
        "갈"
      ],
      [
        "좋아",
        "해"
      ],
      [
        "생각",
        "할"
      ],
      [
        "이별",
        "한지"
      ],
      [
        "아무",
        "것도"
      ],
      [
        "아무",
        "래도"
      ],
      [
        "여친",
        "이"
      ],
      [
        "이상",
        "형"
      ],
      [
        "이었",
        "을"
      ],
      [
        "그",
        "분"
      ],
      [
        "들",
        "은"
      ],
      [
        "르",
        "고"
      ],
      [
        "마",
        "요"
      ],
      [
        "맨",
        "날"
      ],
      [
        "미",
        "리"
      ],
      [
        "봐",
        "도"
      ],
      [
        "부",
        "족"
      ],
      [
        "비",
        "싸"
      ],
      [
        "사",
        "를"
      ],
      [
        "소",
        "중"
      ],
      [
        "속",
        "이"
      ],
      [
        "여",
        "보세요"
      ],
      [
        "응",
        "원"
      ],
      [
        "타",
        "고"
      ],
      [
        "하",
        "겠죠"
      ],
      [
        "사랑",
        "했던"
      ],
      [
        "이별",
        "후"
      ],
      [
        "지금",
        "은"
      ],
      [
        "사귀",
        "는"
      ],
      [
        "먹어",
        "야지"
      ],
      [
        "귀찮",
        "아"
      ],
      [
        "주무",
        "세요"
      ],
      [
        "갈",
        "까"
      ],
      [
        "금",
        "방"
      ],
      [
        "기",
        "간"
      ],
      [
        "나",
        "중에"
      ],
      [
        "늦",
        "지"
      ],
      [
        "데",
        "려"
      ],
      [
        "되",
        "네"
      ],
      [
        "많",
        "아요"
      ],
      [
        "먹",
        "을"
      ],
      [
        "방",
        "학"
      ],
      [
        "보",
        "통"
      ],
      [
        "소",
        "식"
      ],
      [
        "싸",
        "우"
      ],
      [
        "앞",
        "에"
      ],
      [
        "어",
        "서"
      ],
      [
        "일",
        "은"
      ],
      [
        "있",
        "습니다"
      ],
      [
        "자",
        "는"
      ],
      [
        "장",
        "이"
      ],
      [
        "전",
        "남친"
      ],
      [
        "져",
        "요"
      ],
      [
        "죽",
        "을"
      ],
      [
        "태",
        "어"
      ],
      [
        "하",
        "니"
      ],
      [
        "하",
        "나봐요"
      ],
      [
        "해",
        "질"
      ],
      [
        "좋아",
        "하면"
      ],
      [
        "좋아",
        "하게"
      ],
      [
        "친구",
        "를"
      ],
      [
        "만나",
        "지"
      ],
      [
        "괜찮",
        "을까"
      ],
      [
        "아니",
        "라"
      ],
      [
        "필요",
        "해"
      ],
      [
        "필요",
        "해요"
      ],
      [
        "그녀",
        "를"
      ],
      [
        "관심",
        "이"
      ],
      [
        "않아",
        "도"
      ],
      [
        "가져",
        "보세요"
      ],
      [
        "예의",
        "가"
      ],
      [
        "겠",
        "습니다"
      ],
      [
        "나",
        "면"
      ],
      [
        "남",
        "편이"
      ],
      [
        "내",
        "는"
      ],
      [
        "대",
        "화"
      ],
      [
        "더",
        "라"
      ],
      [
        "마",
        "셔"
      ],
      [
        "맛",
        "있는"
      ],
      [
        "무",
        "리"
      ],
      [
        "버",
        "려"
      ],
      [
        "사",
        "친"
      ],
      [
        "상",
        "담"
      ],
      [
        "시",
        "험"
      ],
      [
        "야",
        "겠다"
      ],
      [
        "어",
        "렵"
      ],
      [
        "어",
        "머"
      ],
      [
        "없",
        "네요"
      ],
      [
        "었",
        "나봐요"
      ],
      [
        "우",
        "산"
      ],
      [
        "움",
        "을"
      ],
      [
        "월",
        "급"
      ],
      [
        "이",
        "네"
      ],
      [
        "이",
        "러"
      ],
      [
        "작",
        "은"
      ],
      [
        "잠",
        "깐"
      ],
      [
        "잠",
        "이"
      ],
      [
        "중",
        "인데"
      ],
      [
        "진",
        "정"
      ],
      [
        "충",
        "전"
      ],
      [
        "하",
        "늘"
      ],
      [
        "하",
        "려고"
      ],
      [
        "한",
        "거"
      ],
      [
        "했",
        "다"
      ],
      [
        "흘",
        "렀"
      ],
      [
        "친구",
        "한테"
      ],
      [
        "이별",
        "의"
      ],
      [
        "당신",
        "은"
      ],
      [
        "중요",
        "하지"
      ],
      [
        "짝녀",
        "한테"
      ],
      [
        "감정",
        "을"
      ],
      [
        "헤어졌",
        "습니다"
      ],
      [
        "만났",
        "어"
      ],
      [
        "스럽",
        "게"
      ],
      [
        "확인",
        "해보세요"
      ],
      [
        "살펴",
        "보세요"
      ],
      [
        "ᅲ",
        "ᅲ"
      ],
      [
        "기",
        "회"
      ],
      [
        "대",
        "요"
      ],
      [
        "동",
        "거"
      ],
      [
        "되",
        "고"
      ],
      [
        "드",
        "려요"
      ],
      [
        "로",
        "맨"
      ],
      [
        "바",
        "쁜"
      ],
      [
        "밖",
        "에"
      ],
      [
        "받",
        "았어"
      ],
      [
        "변",
        "화가"
      ],
      [
        "보",
        "러"
      ],
      [
        "비",
        "밀"
      ],
      [
        "생",
        "길"
      ],
      [
        "쇼",
        "핑"
      ],
      [
        "쉬",
        "고"
      ],
      [
        "아",
        "름"
      ],
      [
        "안",
        "나"
      ],
      [
        "알",
        "고"
      ],
      [
        "예",
        "쁘게"
      ],
      [
        "으",
        "니"
      ],
      [
        "자",
        "책"
      ],
      [
        "장",
        "난"
      ],
      [
        "전",
        "여친"
      ],
      [
        "종",
        "교"
      ],
      [
        "지",
        "고"
      ],
      [
        "청",
        "소"
      ],
      [
        "사랑",
        "해주세요"
      ],
      [
        "친구",
        "들"
      ],
      [
        "좋아하는",
        "데"
      ],
      [
        "연락",
        "해"
      ],
      [
        "연락",
        "해도"
      ],
      [
        "하지",
        "마세요"
      ],
      [
        "남자",
        "애가"
      ],
      [
        "힘들",
        "죠"
      ],
      [
        "해야",
        "할"
      ],
      [
        "고민",
        "이야"
      ],
      [
        "언제",
        "나"
      ],
      [
        "누구",
        "나"
      ],
      [
        "확실",
        "한"
      ],
      [
        "2",
        "주"
      ],
      [
        "5",
        "년"
      ],
      [
        "가",
        "네"
      ],
      [
        "같",
        "습니다"
      ],
      [
        "걸",
        "로"
      ],
      [
        "겠",
        "네"
      ],
      [
        "경",
        "우"
      ],
      [
        "그",
        "리고"
      ],
      [
        "기",
        "만"
      ],
      [
        "꾸",
        "준"
      ],
      [
        "당",
        "히"
      ],
      [
        "돈",
        "이"
      ],
      [
        "됐",
        "는데"
      ],
      [
        "되",
        "면"
      ],
      [
        "두",
        "고"
      ],
      [
        "때",
        "도"
      ],
      [
        "리",
        "게"
      ],
      [
        "맞",
        "춰"
      ],
      [
        "멋",
        "진"
      ],
      [
        "못",
        "하는"
      ],
      [
        "문",
        "자"
      ],
      [
        "미",
        "치"
      ],
      [
        "바",
        "라"
      ],
      [
        "바",
        "로"
      ],
      [
        "바",
        "쁘"
      ],
      [
        "분",
        "위"
      ],
      [
        "비",
        "가"
      ],
      [
        "안",
        "되는"
      ],
      [
        "않",
        "고"
      ],
      [
        "약",
        "속"
      ],
      [
        "없",
        "다면"
      ],
      [
        "이",
        "번"
      ],
      [
        "자",
        "격"
      ],
      [
        "주",
        "면"
      ],
      [
        "즐",
        "기"
      ],
      [
        "취",
        "미"
      ],
      [
        "커",
        "플"
      ],
      [
        "타",
        "이"
      ],
      [
        "한",
        "가"
      ],
      [
        "허",
        "전"
      ],
      [
        "사랑",
        "할"
      ],
      [
        "사랑",
        "하고"
      ],
      [
        "생각",
        "만"
      ],
      [
        "힘들",
        "어요"
      ],
      [
        "있는",
        "지"
      ],
      [
        "짝남",
        "이랑"
      ],
      [
        "고민",
        "이"
      ],
      [
        "방법",
        "이"
      ],
      [
        "이라",
        "면"
      ],
      [
        "받아",
        "들"
      ],
      [
        "아닌",
        "지"
      ],
      [
        "그래",
        "요"
      ],
      [
        "궁금",
        "해"
      ],
      [
        "가지",
        "고"
      ],
      [
        "알려",
        "줘"
      ],
      [
        "즐거",
        "운"
      ],
      [
        "같",
        "네요"
      ],
      [
        "곳",
        "이"
      ],
      [
        "당",
        "연"
      ],
      [
        "더",
        "라고"
      ],
      [
        "되",
        "는데"
      ],
      [
        "드",
        "디"
      ],
      [
        "드",
        "라"
      ],
      [
        "못",
        "해"
      ],
      [
        "받",
        "지"
      ],
      [
        "스",
        "킨"
      ],
      [
        "싫",
        "다"
      ],
      [
        "싫",
        "은"
      ],
      [
        "애",
        "랑"
      ],
      [
        "어",
        "울"
      ],
      [
        "어",
        "쩌"
      ],
      [
        "여",
        "러"
      ],
      [
        "왔",
        "는데"
      ],
      [
        "일",
        "도"
      ],
      [
        "잊",
        "고"
      ],
      [
        "잖",
        "아요"
      ],
      [
        "절",
        "대"
      ],
      [
        "조",
        "언"
      ],
      [
        "존",
        "중"
      ],
      [
        "좋",
        "겠죠"
      ],
      [
        "줬",
        "으면"
      ],
      [
        "칭",
        "찬"
      ],
      [
        "통",
        "보"
      ],
      [
        "퇴",
        "근"
      ],
      [
        "해",
        "결"
      ],
      [
        "사람",
        "에게"
      ],
      [
        "친구",
        "들이"
      ],
      [
        "여자",
        "애가"
      ],
      [
        "힘들",
        "겠지만"
      ],
      [
        "좋은",
        "데"
      ],
      [
        "이제",
        "는"
      ],
      [
        "가슴",
        "이"
      ],
      [
        "드디",
        "어"
      ],
      [
        "1",
        "0"
      ],
      [
        "가",
        "를"
      ],
      [
        "거",
        "기까지"
      ],
      [
        "것",
        "을"
      ],
      [
        "내",
        "서"
      ],
      [
        "드",
        "시"
      ],
      [
        "말",
        "해"
      ],
      [
        "몸",
        "이"
      ],
      [
        "뭐",
        "라고"
      ],
      [
        "뭔",
        "가"
      ],
      [
        "뭔",
        "지"
      ],
      [
        "미",
        "워"
      ],
      [
        "성",
        "이"
      ],
      [
        "수",
        "가"
      ],
      [
        "신",
        "가봐요"
      ],
      [
        "안",
        "경"
      ],
      [
        "안",
        "하고"
      ],
      [
[...]
